{
  "version": "1.0",
  "truncation": {
    "direction": "Right",
    "max_length": 128,
    "strategy": "LongestFirst",
    "stride": 0
  },
  "padding": {
    "strategy": "BatchLongest",
    "direction": "Right",
    "pad_to_multiple_of": null,
    "pad_id": 1,
    "pad_type_id": 0,
    "pad_token": "<pad>"
  },
  "added_tokens": [
    {
      "id": 0,
      "content": "<s>",
      "single_word": false,
      "lstrip": false,
      "rstrip": false,
      "normalized": false,
      "special": true
    },
    {
      "id": 1,
      "content": "<pad>",
      "single_word": false,
      "lstrip": false,
      "rstrip": false,
      "normalized": false,
      "special": true
    },
    {
      "id": 2,
      "content": "</s>",
      "single_word": false,
      "lstrip": false,
      "rstrip": false,
      "normalized": false,
      "special": true
    },
    {
      "id": 3,
      "content": "<unk>",
      "single_word": false,
      "lstrip": false,
      "rstrip": false,
      "normalized": false,
      "special": true
    },
    {
      "id": 4,
      "content": "afr_Latn",
      "single_word": false,
      "lstrip": false,
      "rstrip": false,
      "normalized": false,
      "special": true
    },
    {
      "id": 5,
      "content": "eng_Latn",
      "single_word": false,
      "lstrip": false,
      "rstrip": false,
      "normalized": false,
      "special": true
    },
    {
      "id": 6,
      "content": "xho_Latn",
      "single_word": false,
      "lstrip": false,
      "rstrip": false,
      "normalized": false,
      "special": true
    },
    {
      "id": 7,
      "content": "zul_Latn",
      "single_word": false,
      "lstrip": false,
      "rstrip": false,
      "normalized": false,
      "special": true
    },
    {
      "id": 8,
      "content": "<mask>",
      "single_word": false,
      "lstrip": true,
      "rstrip": false,
      "normalized": true,
      "special": true
    },
    {
      "id": 10000,
      "content": "nso_Latn",
      "single_word": false,
      "lstrip": false,
      "rstrip": false,
      "normalized": false,
      "special": true
    },
    {
      "id": 10001,
      "content": "tsn_Latn",
      "single_word": false,
      "lstrip": false,
      "rstrip": false,
      "normalized": false,
      "special": true
    },
    {
      "id": 10002,
      "content": "ace_Arab",
      "single_word": false,
      "lstrip": false,
      "rstrip": false,
      "normalized": false,
      "special": true
    },
    {
      "id": 10003,
      "content": "ace_Latn",
      "single_word": false,
      "lstrip": false,
      "rstrip": false,
      "normalized": false,
      "special": true
    },
    {
      "id": 10004,
      "content": "acm_Arab",
      "single_word": false,
      "lstrip": false,
      "rstrip": false,
      "normalized": false,
      "special": true
    },
    {
      "id": 10005,
      "content": "acq_Arab",
      "single_word": false,
      "lstrip": false,
      "rstrip": false,
      "normalized": false,
      "special": true
    },
    {
      "id": 10006,
      "content": "aeb_Arab",
      "single_word": false,
      "lstrip": false,
      "rstrip": false,
      "normalized": false,
      "special": true
    },
    {
      "id": 10007,
      "content": "ajp_Arab",
      "single_word": false,
      "lstrip": false,
      "rstrip": false,
      "normalized": false,
      "special": true
    },
    {
      "id": 10008,
      "content": "aka_Latn",
      "single_word": false,
      "lstrip": false,
      "rstrip": false,
      "normalized": false,
      "special": true
    },
    {
      "id": 10009,
      "content": "amh_Ethi",
      "single_word": false,
      "lstrip": false,
      "rstrip": false,
      "normalized": false,
      "special": true
    },
    {
      "id": 10010,
      "content": "apc_Arab",
      "single_word": false,
      "lstrip": false,
      "rstrip": false,
      "normalized": false,
      "special": true
    },
    {
      "id": 10011,
      "content": "arb_Arab",
      "single_word": false,
      "lstrip": false,
      "rstrip": false,
      "normalized": false,
      "special": true
    },
    {
      "id": 10012,
      "content": "ars_Arab",
      "single_word": false,
      "lstrip": false,
      "rstrip": false,
      "normalized": false,
      "special": true
    },
    {
      "id": 10013,
      "content": "ary_Arab",
      "single_word": false,
      "lstrip": false,
      "rstrip": false,
      "normalized": false,
      "special": true
    },
    {
      "id": 10014,
      "content": "arz_Arab",
      "single_word": false,
      "lstrip": false,
      "rstrip": false,
      "normalized": false,
      "special": true
    },
    {
      "id": 10015,
      "content": "asm_Beng",
      "single_word": false,
      "lstrip": false,
      "rstrip": false,
      "normalized": false,
      "special": true
    },
    {
      "id": 10016,
      "content": "ast_Latn",
      "single_word": false,
      "lstrip": false,
      "rstrip": false,
      "normalized": false,
      "special": true
    },
    {
      "id": 10017,
      "content": "awa_Deva",
      "single_word": false,
      "lstrip": false,
      "rstrip": false,
      "normalized": false,
      "special": true
    },
    {
      "id": 10018,
      "content": "ayr_Latn",
      "single_word": false,
      "lstrip": false,
      "rstrip": false,
      "normalized": false,
      "special": true
    },
    {
      "id": 10019,
      "content": "azb_Arab",
      "single_word": false,
      "lstrip": false,
      "rstrip": false,
      "normalized": false,
      "special": true
    },
    {
      "id": 10020,
      "content": "azj_Latn",
      "single_word": false,
      "lstrip": false,
      "rstrip": false,
      "normalized": false,
      "special": true
    },
    {
      "id": 10021,
      "content": "bak_Cyrl",
      "single_word": false,
      "lstrip": false,
      "rstrip": false,
      "normalized": false,
      "special": true
    },
    {
      "id": 10022,
      "content": "bam_Latn",
      "single_word": false,
      "lstrip": false,
      "rstrip": false,
      "normalized": false,
      "special": true
    },
    {
      "id": 10023,
      "content": "ban_Latn",
      "single_word": false,
      "lstrip": false,
      "rstrip": false,
      "normalized": false,
      "special": true
    },
    {
      "id": 10024,
      "content": "bel_Cyrl",
      "single_word": false,
      "lstrip": false,
      "rstrip": false,
      "normalized": false,
      "special": true
    },
    {
      "id": 10025,
      "content": "bem_Latn",
      "single_word": false,
      "lstrip": false,
      "rstrip": false,
      "normalized": false,
      "special": true
    },
    {
      "id": 10026,
      "content": "ben_Beng",
      "single_word": false,
      "lstrip": false,
      "rstrip": false,
      "normalized": false,
      "special": true
    },
    {
      "id": 10027,
      "content": "bho_Deva",
      "single_word": false,
      "lstrip": false,
      "rstrip": false,
      "normalized": false,
      "special": true
    },
    {
      "id": 10028,
      "content": "bjn_Arab",
      "single_word": false,
      "lstrip": false,
      "rstrip": false,
      "normalized": false,
      "special": true
    },
    {
      "id": 10029,
      "content": "bjn_Latn",
      "single_word": false,
      "lstrip": false,
      "rstrip": false,
      "normalized": false,
      "special": true
    },
    {
      "id": 10030,
      "content": "bod_Tibt",
      "single_word": false,
      "lstrip": false,
      "rstrip": false,
      "normalized": false,
      "special": true
    },
    {
      "id": 10031,
      "content": "bos_Latn",
      "single_word": false,
      "lstrip": false,
      "rstrip": false,
      "normalized": false,
      "special": true
    },
    {
      "id": 10032,
      "content": "bug_Latn",
      "single_word": false,
      "lstrip": false,
      "rstrip": false,
      "normalized": false,
      "special": true
    },
    {
      "id": 10033,
      "content": "bul_Cyrl",
      "single_word": false,
      "lstrip": false,
      "rstrip": false,
      "normalized": false,
      "special": true
    },
    {
      "id": 10034,
      "content": "cat_Latn",
      "single_word": false,
      "lstrip": false,
      "rstrip": false,
      "normalized": false,
      "special": true
    },
    {
      "id": 10035,
      "content": "ceb_Latn",
      "single_word": false,
      "lstrip": false,
      "rstrip": false,
      "normalized": false,
      "special": true
    },
    {
      "id": 10036,
      "content": "ces_Latn",
      "single_word": false,
      "lstrip": false,
      "rstrip": false,
      "normalized": false,
      "special": true
    },
    {
      "id": 10037,
      "content": "cjk_Latn",
      "single_word": false,
      "lstrip": false,
      "rstrip": false,
      "normalized": false,
      "special": true
    },
    {
      "id": 10038,
      "content": "ckb_Arab",
      "single_word": false,
      "lstrip": false,
      "rstrip": false,
      "normalized": false,
      "special": true
    },
    {
      "id": 10039,
      "content": "crh_Latn",
      "single_word": false,
      "lstrip": false,
      "rstrip": false,
      "normalized": false,
      "special": true
    },
    {
      "id": 10040,
      "content": "cym_Latn",
      "single_word": false,
      "lstrip": false,
      "rstrip": false,
      "normalized": false,
      "special": true
    },
    {
      "id": 10041,
      "content": "dan_Latn",
      "single_word": false,
      "lstrip": false,
      "rstrip": false,
      "normalized": false,
      "special": true
    },
    {
      "id": 10042,
      "content": "deu_Latn",
      "single_word": false,
      "lstrip": false,
      "rstrip": false,
      "normalized": false,
      "special": true
    },
    {
      "id": 10043,
      "content": "dik_Latn",
      "single_word": false,
      "lstrip": false,
      "rstrip": false,
      "normalized": false,
      "special": true
    },
    {
      "id": 10044,
      "content": "dyu_Latn",
      "single_word": false,
      "lstrip": false,
      "rstrip": false,
      "normalized": false,
      "special": true
    },
    {
      "id": 10045,
      "content": "dzo_Tibt",
      "single_word": false,
      "lstrip": false,
      "rstrip": false,
      "normalized": false,
      "special": true
    },
    {
      "id": 10046,
      "content": "ell_Grek",
      "single_word": false,
      "lstrip": false,
      "rstrip": false,
      "normalized": false,
      "special": true
    },
    {
      "id": 10047,
      "content": "epo_Latn",
      "single_word": false,
      "lstrip": false,
      "rstrip": false,
      "normalized": false,
      "special": true
    },
    {
      "id": 10048,
      "content": "est_Latn",
      "single_word": false,
      "lstrip": false,
      "rstrip": false,
      "normalized": false,
      "special": true
    },
    {
      "id": 10049,
      "content": "eus_Latn",
      "single_word": false,
      "lstrip": false,
      "rstrip": false,
      "normalized": false,
      "special": true
    },
    {
      "id": 10050,
      "content": "ewe_Latn",
      "single_word": false,
      "lstrip": false,
      "rstrip": false,
      "normalized": false,
      "special": true
    },
    {
      "id": 10051,
      "content": "fao_Latn",
      "single_word": false,
      "lstrip": false,
      "rstrip": false,
      "normalized": false,
      "special": true
    },
    {
      "id": 10052,
      "content": "pes_Arab",
      "single_word": false,
      "lstrip": false,
      "rstrip": false,
      "normalized": false,
      "special": true
    },
    {
      "id": 10053,
      "content": "fij_Latn",
      "single_word": false,
      "lstrip": false,
      "rstrip": false,
      "normalized": false,
      "special": true
    },
    {
      "id": 10054,
      "content": "fin_Latn",
      "single_word": false,
      "lstrip": false,
      "rstrip": false,
      "normalized": false,
      "special": true
    },
    {
      "id": 10055,
      "content": "fon_Latn",
      "single_word": false,
      "lstrip": false,
      "rstrip": false,
      "normalized": false,
      "special": true
    },
    {
      "id": 10056,
      "content": "fra_Latn",
      "single_word": false,
      "lstrip": false,
      "rstrip": false,
      "normalized": false,
      "special": true
    },
    {
      "id": 10057,
      "content": "fur_Latn",
      "single_word": false,
      "lstrip": false,
      "rstrip": false,
      "normalized": false,
      "special": true
    },
    {
      "id": 10058,
      "content": "fuv_Latn",
      "single_word": false,
      "lstrip": false,
      "rstrip": false,
      "normalized": false,
      "special": true
    },
    {
      "id": 10059,
      "content": "gla_Latn",
      "single_word": false,
      "lstrip": false,
      "rstrip": false,
      "normalized": false,
      "special": true
    },
    {
      "id": 10060,
      "content": "gle_Latn",
      "single_word": false,
      "lstrip": false,
      "rstrip": false,
      "normalized": false,
      "special": true
    },
    {
      "id": 10061,
      "content": "glg_Latn",
      "single_word": false,
      "lstrip": false,
      "rstrip": false,
      "normalized": false,
      "special": true
    },
    {
      "id": 10062,
      "content": "grn_Latn",
      "single_word": false,
      "lstrip": false,
      "rstrip": false,
      "normalized": false,
      "special": true
    },
    {
      "id": 10063,
      "content": "guj_Gujr",
      "single_word": false,
      "lstrip": false,
      "rstrip": false,
      "normalized": false,
      "special": true
    },
    {
      "id": 10064,
      "content": "hat_Latn",
      "single_word": false,
      "lstrip": false,
      "rstrip": false,
      "normalized": false,
      "special": true
    },
    {
      "id": 10065,
      "content": "hau_Latn",
      "single_word": false,
      "lstrip": false,
      "rstrip": false,
      "normalized": false,
      "special": true
    },
    {
      "id": 10066,
      "content": "heb_Hebr",
      "single_word": false,
      "lstrip": false,
      "rstrip": false,
      "normalized": false,
      "special": true
    },
    {
      "id": 10067,
      "content": "hin_Deva",
      "single_word": false,
      "lstrip": false,
      "rstrip": false,
      "normalized": false,
      "special": true
    },
    {
      "id": 10068,
      "content": "hne_Deva",
      "single_word": false,
      "lstrip": false,
      "rstrip": false,
      "normalized": false,
      "special": true
    },
    {
      "id": 10069,
      "content": "hrv_Latn",
      "single_word": false,
      "lstrip": false,
      "rstrip": false,
      "normalized": false,
      "special": true
    },
    {
      "id": 10070,
      "content": "hun_Latn",
      "single_word": false,
      "lstrip": false,
      "rstrip": false,
      "normalized": false,
      "special": true
    },
    {
      "id": 10071,
      "content": "hye_Armn",
      "single_word": false,
      "lstrip": false,
      "rstrip": false,
      "normalized": false,
      "special": true
    },
    {
      "id": 10072,
      "content": "ibo_Latn",
      "single_word": false,
      "lstrip": false,
      "rstrip": false,
      "normalized": false,
      "special": true
    },
    {
      "id": 10073,
      "content": "ilo_Latn",
      "single_word": false,
      "lstrip": false,
      "rstrip": false,
      "normalized": false,
      "special": true
    },
    {
      "id": 10074,
      "content": "ind_Latn",
      "single_word": false,
      "lstrip": false,
      "rstrip": false,
      "normalized": false,
      "special": true
    },
    {
      "id": 10075,
      "content": "isl_Latn",
      "single_word": false,
      "lstrip": false,
      "rstrip": false,
      "normalized": false,
      "special": true
    },
    {
      "id": 10076,
      "content": "ita_Latn",
      "single_word": false,
      "lstrip": false,
      "rstrip": false,
      "normalized": false,
      "special": true
    },
    {
      "id": 10077,
      "content": "jav_Latn",
      "single_word": false,
      "lstrip": false,
      "rstrip": false,
      "normalized": false,
      "special": true
    },
    {
      "id": 10078,
      "content": "jpn_Jpan",
      "single_word": false,
      "lstrip": false,
      "rstrip": false,
      "normalized": false,
      "special": true
    },
    {
      "id": 10079,
      "content": "kab_Latn",
      "single_word": false,
      "lstrip": false,
      "rstrip": false,
      "normalized": false,
      "special": true
    },
    {
      "id": 10080,
      "content": "kac_Latn",
      "single_word": false,
      "lstrip": false,
      "rstrip": false,
      "normalized": false,
      "special": true
    },
    {
      "id": 10081,
      "content": "kam_Latn",
      "single_word": false,
      "lstrip": false,
      "rstrip": false,
      "normalized": false,
      "special": true
    },
    {
      "id": 10082,
      "content": "kan_Knda",
      "single_word": false,
      "lstrip": false,
      "rstrip": false,
      "normalized": false,
      "special": true
    },
    {
      "id": 10083,
      "content": "kas_Arab",
      "single_word": false,
      "lstrip": false,
      "rstrip": false,
      "normalized": false,
      "special": true
    },
    {
      "id": 10084,
      "content": "kas_Deva",
      "single_word": false,
      "lstrip": false,
      "rstrip": false,
      "normalized": false,
      "special": true
    },
    {
      "id": 10085,
      "content": "kat_Geor",
      "single_word": false,
      "lstrip": false,
      "rstrip": false,
      "normalized": false,
      "special": true
    },
    {
      "id": 10086,
      "content": "knc_Arab",
      "single_word": false,
      "lstrip": false,
      "rstrip": false,
      "normalized": false,
      "special": true
    },
    {
      "id": 10087,
      "content": "knc_Latn",
      "single_word": false,
      "lstrip": false,
      "rstrip": false,
      "normalized": false,
      "special": true
    },
    {
      "id": 10088,
      "content": "kaz_Cyrl",
      "single_word": false,
      "lstrip": false,
      "rstrip": false,
      "normalized": false,
      "special": true
    },
    {
      "id": 10089,
      "content": "kbp_Latn",
      "single_word": false,
      "lstrip": false,
      "rstrip": false,
      "normalized": false,
      "special": true
    },
    {
      "id": 10090,
      "content": "kea_Latn",
      "single_word": false,
      "lstrip": false,
      "rstrip": false,
      "normalized": false,
      "special": true
    },
    {
      "id": 10091,
      "content": "khm_Khmr",
      "single_word": false,
      "lstrip": false,
      "rstrip": false,
      "normalized": false,
      "special": true
    },
    {
      "id": 10092,
      "content": "kik_Latn",
      "single_word": false,
      "lstrip": false,
      "rstrip": false,
      "normalized": false,
      "special": true
    },
    {
      "id": 10093,
      "content": "kin_Latn",
      "single_word": false,
      "lstrip": false,
      "rstrip": false,
      "normalized": false,
      "special": true
    },
    {
      "id": 10094,
      "content": "kir_Cyrl",
      "single_word": false,
      "lstrip": false,
      "rstrip": false,
      "normalized": false,
      "special": true
    },
    {
      "id": 10095,
      "content": "kmb_Latn",
      "single_word": false,
      "lstrip": false,
      "rstrip": false,
      "normalized": false,
      "special": true
    },
    {
      "id": 10096,
      "content": "kon_Latn",
      "single_word": false,
      "lstrip": false,
      "rstrip": false,
      "normalized": false,
      "special": true
    },
    {
      "id": 10097,
      "content": "kor_Hang",
      "single_word": false,
      "lstrip": false,
      "rstrip": false,
      "normalized": false,
      "special": true
    },
    {
      "id": 10098,
      "content": "kmr_Latn",
      "single_word": false,
      "lstrip": false,
      "rstrip": false,
      "normalized": false,
      "special": true
    },
    {
      "id": 10099,
      "content": "lao_Laoo",
      "single_word": false,
      "lstrip": false,
      "rstrip": false,
      "normalized": false,
      "special": true
    },
    {
      "id": 10100,
      "content": "lvs_Latn",
      "single_word": false,
      "lstrip": false,
      "rstrip": false,
      "normalized": false,
      "special": true
    },
    {
      "id": 10101,
      "content": "lij_Latn",
      "single_word": false,
      "lstrip": false,
      "rstrip": false,
      "normalized": false,
      "special": true
    },
    {
      "id": 10102,
      "content": "lim_Latn",
      "single_word": false,
      "lstrip": false,
      "rstrip": false,
      "normalized": false,
      "special": true
    },
    {
      "id": 10103,
      "content": "lin_Latn",
      "single_word": false,
      "lstrip": false,
      "rstrip": false,
      "normalized": false,
      "special": true
    },
    {
      "id": 10104,
      "content": "lit_Latn",
      "single_word": false,
      "lstrip": false,
      "rstrip": false,
      "normalized": false,
      "special": true
    },
    {
      "id": 10105,
      "content": "lmo_Latn",
      "single_word": false,
      "lstrip": false,
      "rstrip": false,
      "normalized": false,
      "special": true
    },
    {
      "id": 10106,
      "content": "ltg_Latn",
      "single_word": false,
      "lstrip": false,
      "rstrip": false,
      "normalized": false,
      "special": true
    },
    {
      "id": 10107,
      "content": "ltz_Latn",
      "single_word": false,
      "lstrip": false,
      "rstrip": false,
      "normalized": false,
      "special": true
    },
    {
      "id": 10108,
      "content": "lua_Latn",
      "single_word": false,
      "lstrip": false,
      "rstrip": false,
      "normalized": false,
      "special": true
    },
    {
      "id": 10109,
      "content": "lug_Latn",
      "single_word": false,
      "lstrip": false,
      "rstrip": false,
      "normalized": false,
      "special": true
    },
    {
      "id": 10110,
      "content": "luo_Latn",
      "single_word": false,
      "lstrip": false,
      "rstrip": false,
      "normalized": false,
      "special": true
    },
    {
      "id": 10111,
      "content": "lus_Latn",
      "single_word": false,
      "lstrip": false,
      "rstrip": false,
      "normalized": false,
      "special": true
    },
    {
      "id": 10112,
      "content": "mag_Deva",
      "single_word": false,
      "lstrip": false,
      "rstrip": false,
      "normalized": false,
      "special": true
    },
    {
      "id": 10113,
      "content": "mai_Deva",
      "single_word": false,
      "lstrip": false,
      "rstrip": false,
      "normalized": false,
      "special": true
    },
    {
      "id": 10114,
      "content": "mal_Mlym",
      "single_word": false,
      "lstrip": false,
      "rstrip": false,
      "normalized": false,
      "special": true
    },
    {
      "id": 10115,
      "content": "mar_Deva",
      "single_word": false,
      "lstrip": false,
      "rstrip": false,
      "normalized": false,
      "special": true
    },
    {
      "id": 10116,
      "content": "min_Latn",
      "single_word": false,
      "lstrip": false,
      "rstrip": false,
      "normalized": false,
      "special": true
    },
    {
      "id": 10117,
      "content": "mkd_Cyrl",
      "single_word": false,
      "lstrip": false,
      "rstrip": false,
      "normalized": false,
      "special": true
    },
    {
      "id": 10118,
      "content": "plt_Latn",
      "single_word": false,
      "lstrip": false,
      "rstrip": false,
      "normalized": false,
      "special": true
    },
    {
      "id": 10119,
      "content": "mlt_Latn",
      "single_word": false,
      "lstrip": false,
      "rstrip": false,
      "normalized": false,
      "special": true
    },
    {
      "id": 10120,
      "content": "mni_Beng",
      "single_word": false,
      "lstrip": false,
      "rstrip": false,
      "normalized": false,
      "special": true
    },
    {
      "id": 10121,
      "content": "khk_Cyrl",
      "single_word": false,
      "lstrip": false,
      "rstrip": false,
      "normalized": false,
      "special": true
    },
    {
      "id": 10122,
      "content": "mos_Latn",
      "single_word": false,
      "lstrip": false,
      "rstrip": false,
      "normalized": false,
      "special": true
    },
    {
      "id": 10123,
      "content": "mri_Latn",
      "single_word": false,
      "lstrip": false,
      "rstrip": false,
      "normalized": false,
      "special": true
    },
    {
      "id": 10124,
      "content": "zsm_Latn",
      "single_word": false,
      "lstrip": false,
      "rstrip": false,
      "normalized": false,
      "special": true
    },
    {
      "id": 10125,
      "content": "mya_Mymr",
      "single_word": false,
      "lstrip": false,
      "rstrip": false,
      "normalized": false,
      "special": true
    },
    {
      "id": 10126,
      "content": "nld_Latn",
      "single_word": false,
      "lstrip": false,
      "rstrip": false,
      "normalized": false,
      "special": true
    },
    {
      "id": 10127,
      "content": "nno_Latn",
      "single_word": false,
      "lstrip": false,
      "rstrip": false,
      "normalized": false,
      "special": true
    },
    {
      "id": 10128,
      "content": "nob_Latn",
      "single_word": false,
      "lstrip": false,
      "rstrip": false,
      "normalized": false,
      "special": true
    },
    {
      "id": 10129,
      "content": "npi_Deva",
      "single_word": false,
      "lstrip": false,
      "rstrip": false,
      "normalized": false,
      "special": true
    },
    {
      "id": 10130,
      "content": "nus_Latn",
      "single_word": false,
      "lstrip": false,
      "rstrip": false,
      "normalized": false,
      "special": true
    },
    {
      "id": 10131,
      "content": "nya_Latn",
      "single_word": false,
      "lstrip": false,
      "rstrip": false,
      "normalized": false,
      "special": true
    },
    {
      "id": 10132,
      "content": "oci_Latn",
      "single_word": false,
      "lstrip": false,
      "rstrip": false,
      "normalized": false,
      "special": true
    },
    {
      "id": 10133,
      "content": "gaz_Latn",
      "single_word": false,
      "lstrip": false,
      "rstrip": false,
      "normalized": false,
      "special": true
    },
    {
      "id": 10134,
      "content": "ory_Orya",
      "single_word": false,
      "lstrip": false,
      "rstrip": false,
      "normalized": false,
      "special": true
    },
    {
      "id": 10135,
      "content": "pag_Latn",
      "single_word": false,
      "lstrip": false,
      "rstrip": false,
      "normalized": false,
      "special": true
    },
    {
      "id": 10136,
      "content": "pan_Guru",
      "single_word": false,
      "lstrip": false,
      "rstrip": false,
      "normalized": false,
      "special": true
    },
    {
      "id": 10137,
      "content": "pap_Latn",
      "single_word": false,
      "lstrip": false,
      "rstrip": false,
      "normalized": false,
      "special": true
    },
    {
      "id": 10138,
      "content": "pol_Latn",
      "single_word": false,
      "lstrip": false,
      "rstrip": false,
      "normalized": false,
      "special": true
    },
    {
      "id": 10139,
      "content": "por_Latn",
      "single_word": false,
      "lstrip": false,
      "rstrip": false,
      "normalized": false,
      "special": true
    },
    {
      "id": 10140,
      "content": "prs_Arab",
      "single_word": false,
      "lstrip": false,
      "rstrip": false,
      "normalized": false,
      "special": true
    },
    {
      "id": 10141,
      "content": "pbt_Arab",
      "single_word": false,
      "lstrip": false,
      "rstrip": false,
      "normalized": false,
      "special": true
    },
    {
      "id": 10142,
      "content": "quy_Latn",
      "single_word": false,
      "lstrip": false,
      "rstrip": false,
      "normalized": false,
      "special": true
    },
    {
      "id": 10143,
      "content": "ron_Latn",
      "single_word": false,
      "lstrip": false,
      "rstrip": false,
      "normalized": false,
      "special": true
    },
    {
      "id": 10144,
      "content": "run_Latn",
      "single_word": false,
      "lstrip": false,
      "rstrip": false,
      "normalized": false,
      "special": true
    },
    {
      "id": 10145,
      "content": "rus_Cyrl",
      "single_word": false,
      "lstrip": false,
      "rstrip": false,
      "normalized": false,
      "special": true
    },
    {
      "id": 10146,
      "content": "sag_Latn",
      "single_word": false,
      "lstrip": false,
      "rstrip": false,
      "normalized": false,
      "special": true
    },
    {
      "id": 10147,
      "content": "san_Deva",
      "single_word": false,
      "lstrip": false,
      "rstrip": false,
      "normalized": false,
      "special": true
    },
    {
      "id": 10148,
      "content": "sat_Beng",
      "single_word": false,
      "lstrip": false,
      "rstrip": false,
      "normalized": false,
      "special": true
    },
    {
      "id": 10149,
      "content": "scn_Latn",
      "single_word": false,
      "lstrip": false,
      "rstrip": false,
      "normalized": false,
      "special": true
    },
    {
      "id": 10150,
      "content": "shn_Mymr",
      "single_word": false,
      "lstrip": false,
      "rstrip": false,
      "normalized": false,
      "special": true
    },
    {
      "id": 10151,
      "content": "sin_Sinh",
      "single_word": false,
      "lstrip": false,
      "rstrip": false,
      "normalized": false,
      "special": true
    },
    {
      "id": 10152,
      "content": "slk_Latn",
      "single_word": false,
      "lstrip": false,
      "rstrip": false,
      "normalized": false,
      "special": true
    },
    {
      "id": 10153,
      "content": "slv_Latn",
      "single_word": false,
      "lstrip": false,
      "rstrip": false,
      "normalized": false,
      "special": true
    },
    {
      "id": 10154,
      "content": "smo_Latn",
      "single_word": false,
      "lstrip": false,
      "rstrip": false,
      "normalized": false,
      "special": true
    },
    {
      "id": 10155,
      "content": "sna_Latn",
      "single_word": false,
      "lstrip": false,
      "rstrip": false,
      "normalized": false,
      "special": true
    },
    {
      "id": 10156,
      "content": "snd_Arab",
      "single_word": false,
      "lstrip": false,
      "rstrip": false,
      "normalized": false,
      "special": true
    },
    {
      "id": 10157,
      "content": "som_Latn",
      "single_word": false,
      "lstrip": false,
      "rstrip": false,
      "normalized": false,
      "special": true
    },
    {
      "id": 10158,
      "content": "sot_Latn",
      "single_word": false,
      "lstrip": false,
      "rstrip": false,
      "normalized": false,
      "special": true
    },
    {
      "id": 10159,
      "content": "spa_Latn",
      "single_word": false,
      "lstrip": false,
      "rstrip": false,
      "normalized": false,
      "special": true
    },
    {
      "id": 10160,
      "content": "als_Latn",
      "single_word": false,
      "lstrip": false,
      "rstrip": false,
      "normalized": false,
      "special": true
    },
    {
      "id": 10161,
      "content": "srd_Latn",
      "single_word": false,
      "lstrip": false,
      "rstrip": false,
      "normalized": false,
      "special": true
    },
    {
      "id": 10162,
      "content": "srp_Cyrl",
      "single_word": false,
      "lstrip": false,
      "rstrip": false,
      "normalized": false,
      "special": true
    },
    {
      "id": 10163,
      "content": "ssw_Latn",
      "single_word": false,
      "lstrip": false,
      "rstrip": false,
      "normalized": false,
      "special": true
    },
    {
      "id": 10164,
      "content": "sun_Latn",
      "single_word": false,
      "lstrip": false,
      "rstrip": false,
      "normalized": false,
      "special": true
    },
    {
      "id": 10165,
      "content": "swe_Latn",
      "single_word": false,
      "lstrip": false,
      "rstrip": false,
      "normalized": false,
      "special": true
    },
    {
      "id": 10166,
      "content": "swh_Latn",
      "single_word": false,
      "lstrip": false,
      "rstrip": false,
      "normalized": false,
      "special": true
    },
    {
      "id": 10167,
      "content": "szl_Latn",
      "single_word": false,
      "lstrip": false,
      "rstrip": false,
      "normalized": false,
      "special": true
    },
    {
      "id": 10168,
      "content": "tam_Taml",
      "single_word": false,
      "lstrip": false,
      "rstrip": false,
      "normalized": false,
      "special": true
    },
    {
      "id": 10169,
      "content": "tat_Cyrl",
      "single_word": false,
      "lstrip": false,
      "rstrip": false,
      "normalized": false,
      "special": true
    },
    {
      "id": 10170,
      "content": "tel_Telu",
      "single_word": false,
      "lstrip": false,
      "rstrip": false,
      "normalized": false,
      "special": true
    },
    {
      "id": 10171,
      "content": "tgk_Cyrl",
      "single_word": false,
      "lstrip": false,
      "rstrip": false,
      "normalized": false,
      "special": true
    },
    {
      "id": 10172,
      "content": "tgl_Latn",
      "single_word": false,
      "lstrip": false,
      "rstrip": false,
      "normalized": false,
      "special": true
    },
    {
      "id": 10173,
      "content": "tha_Thai",
      "single_word": false,
      "lstrip": false,
      "rstrip": false,
      "normalized": false,
      "special": true
    },
    {
      "id": 10174,
      "content": "tir_Ethi",
      "single_word": false,
      "lstrip": false,
      "rstrip": false,
      "normalized": false,
      "special": true
    },
    {
      "id": 10175,
      "content": "taq_Latn",
      "single_word": false,
      "lstrip": false,
      "rstrip": false,
      "normalized": false,
      "special": true
    },
    {
      "id": 10176,
      "content": "taq_Tfng",
      "single_word": false,
      "lstrip": false,
      "rstrip": false,
      "normalized": false,
      "special": true
    },
    {
      "id": 10177,
      "content": "tpi_Latn",
      "single_word": false,
      "lstrip": false,
      "rstrip": false,
      "normalized": false,
      "special": true
    },
    {
      "id": 10178,
      "content": "tso_Latn",
      "single_word": false,
      "lstrip": false,
      "rstrip": false,
      "normalized": false,
      "special": true
    },
    {
      "id": 10179,
      "content": "tuk_Latn",
      "single_word": false,
      "lstrip": false,
      "rstrip": false,
      "normalized": false,
      "special": true
    },
    {
      "id": 10180,
      "content": "tum_Latn",
      "single_word": false,
      "lstrip": false,
      "rstrip": false,
      "normalized": false,
      "special": true
    },
    {
      "id": 10181,
      "content": "tur_Latn",
      "single_word": false,
      "lstrip": false,
      "rstrip": false,
      "normalized": false,
      "special": true
    },
    {
      "id": 10182,
      "content": "twi_Latn",
      "single_word": false,
      "lstrip": false,
      "rstrip": false,
      "normalized": false,
      "special": true
    },
    {
      "id": 10183,
      "content": "tzm_Tfng",
      "single_word": false,
      "lstrip": false,
      "rstrip": false,
      "normalized": false,
      "special": true
    },
    {
      "id": 10184,
      "content": "uig_Arab",
      "single_word": false,
      "lstrip": false,
      "rstrip": false,
      "normalized": false,
      "special": true
    },
    {
      "id": 10185,
      "content": "ukr_Cyrl",
      "single_word": false,
      "lstrip": false,
      "rstrip": false,
      "normalized": false,
      "special": true
    },
    {
      "id": 10186,
      "content": "umb_Latn",
      "single_word": false,
      "lstrip": false,
      "rstrip": false,
      "normalized": false,
      "special": true
    },
    {
      "id": 10187,
      "content": "urd_Arab",
      "single_word": false,
      "lstrip": false,
      "rstrip": false,
      "normalized": false,
      "special": true
    },
    {
      "id": 10188,
      "content": "uzn_Latn",
      "single_word": false,
      "lstrip": false,
      "rstrip": false,
      "normalized": false,
      "special": true
    },
    {
      "id": 10189,
      "content": "vec_Latn",
      "single_word": false,
      "lstrip": false,
      "rstrip": false,
      "normalized": false,
      "special": true
    },
    {
      "id": 10190,
      "content": "vie_Latn",
      "single_word": false,
      "lstrip": false,
      "rstrip": false,
      "normalized": false,
      "special": true
    },
    {
      "id": 10191,
      "content": "war_Latn",
      "single_word": false,
      "lstrip": false,
      "rstrip": false,
      "normalized": false,
      "special": true
    },
    {
      "id": 10192,
      "content": "wol_Latn",
      "single_word": false,
      "lstrip": false,
      "rstrip": false,
      "normalized": false,
      "special": true
    },
    {
      "id": 10193,
      "content": "ydd_Hebr",
      "single_word": false,
      "lstrip": false,
      "rstrip": false,
      "normalized": false,
      "special": true
    },
    {
      "id": 10194,
      "content": "yor_Latn",
      "single_word": false,
      "lstrip": false,
      "rstrip": false,
      "normalized": false,
      "special": true
    },
    {
      "id": 10195,
      "content": "yue_Hant",
      "single_word": false,
      "lstrip": false,
      "rstrip": false,
      "normalized": false,
      "special": true
    },
    {
      "id": 10196,
      "content": "zho_Hans",
      "single_word": false,
      "lstrip": false,
      "rstrip": false,
      "normalized": false,
      "special": true
    },
    {
      "id": 10197,
      "content": "zho_Hant",
      "single_word": false,
      "lstrip": false,
      "rstrip": false,
      "normalized": false,
      "special": true
    }
  ],
  "normalizer": {
    "type": "NFKC"
  },
  "pre_tokenizer": {
    "type": "Metaspace",
    "replacement": "▁",
    "prepend_scheme": "always",
    "split": true
  },
  "post_processor": {
    "type": "TemplateProcessing",
    "single": [
      {
        "SpecialToken": {
          "id": "eng_Latn",
          "type_id": 0
        }
      },
      {
        "Sequence": {
          "id": "A",
          "type_id": 0
        }
      },
      {
        "SpecialToken": {
          "id": "</s>",
          "type_id": 0
        }
      }
    ],
    "pair": [
      {
        "SpecialToken": {
          "id": "eng_Latn",
          "type_id": 0
        }
      },
      {
        "Sequence": {
          "id": "A",
          "type_id": 0
        }
      },
      {
        "Sequence": {
          "id": "B",
          "type_id": 0
        }
      },
      {
        "SpecialToken": {
          "id": "</s>",
          "type_id": 0
        }
      }
    ],
    "special_tokens": {
      "</s>": {
        "id": "</s>",
        "ids": [
          2
        ],
        "tokens": [
          "</s>"
        ]
      },
      "eng_Latn": {
        "id": "eng_Latn",
        "ids": [
          5
        ],
        "tokens": [
          "eng_Latn"
        ]
      }
    }
  },
  "decoder": {
    "type": "Metaspace",
    "replacement": "▁",
    "prepend_scheme": "always",
    "split": true
  },
  "model": {
    "type": "BPE",
    "dropout": null,
    "unk_token": "<unk>",
    "continuing_subword_prefix": null,
    "end_of_word_suffix": null,
    "fuse_unk": false,
    "byte_fallback": false,
    "ignore_merges": false,
    "vocab": {
      "<s>": 0,
      "<pad>": 1,
      "</s>": 2,
      "<unk>": 3,
      "afr_Latn": 4,
      "eng_Latn": 5,
      "xho_Latn": 6,
      "zul_Latn": 7,
      "<mask>": 8,
      "\n": 9,
      "!": 10,
      "\"": 11,
      "#": 12,
      "$": 13,
      "%": 14,
      "&": 15,
      "'": 16,
      "(": 17,
      ")": 18,
      "*": 19,
      "+": 20,
      ",": 21,
      "-": 22,
      ".": 23,
      "/": 24,
      "0": 25,
      "1": 26,
      "2": 27,
      "3": 28,
      "4": 29,
      "5": 30,
      "6": 31,
      "7": 32,
      "8": 33,
      "9": 34,
      ":": 35,
      ";": 36,
      "<": 37,
      "=": 38,
      ">": 39,
      "?": 40,
      "@": 41,
      "A": 42,
      "B": 43,
      "C": 44,
      "D": 45,
      "E": 46,
      "F": 47,
      "G": 48,
      "H": 49,
      "I": 50,
      "J": 51,
      "K": 52,
      "L": 53,
      "M": 54,
      "N": 55,
      "O": 56,
      "P": 57,
      "Q": 58,
      "R": 59,
      "S": 60,
      "T": 61,
      "U": 62,
      "V": 63,
      "W": 64,
      "X": 65,
      "Y": 66,
      "Z": 67,
      "[": 68,
      "\\": 69,
      "]": 70,
      "^": 71,
      "_": 72,
      "a": 73,
      "b": 74,
      "c": 75,
      "d": 76,
      "e": 77,
      "f": 78,
      "g": 79,
      "h": 80,
      "i": 81,
      "j": 82,
      "k": 83,
      "l": 84,
      "m": 85,
      "n": 86,
      "o": 87,
      "p": 88,
      "q": 89,
      "r": 90,
      "s": 91,
      "t": 92,
      "u": 93,
      "v": 94,
      "w": 95,
      "x": 96,
      "y": 97,
      "z": 98,
      "{": 99,
      "|": 100,
      "}": 101,
      "~": 102,
      "¡": 103,
      "¢": 104,
      "£": 105,
      "¤": 106,
      "¥": 107,
      "¦": 108,
      "§": 109,
      "©": 110,
      "¬": 111,
      "®": 112,
      "°": 113,
      "±": 114,
      "¶": 115,
      "·": 116,
      "¿": 117,
      "À": 118,
      "Á": 119,
      "Â": 120,
      "Ã": 121,
      "Ä": 122,
      "Å": 123,
      "Ç": 124,
      "É": 125,
      "Ê": 126,
      "Ë": 127,
      "Í": 128,
      "Ó": 129,
      "Ö": 130,
      "×": 131,
      "Ø": 132,
      "Ü": 133,
      "ß": 134,
      "à": 135,
      "á": 136,
      "â": 137,
      "ã": 138,
      "ä": 139,
      "å": 140,
      "æ": 141,
      "ç": 142,
      "è": 143,
      "é": 144,
      "ê": 145,
      "ë": 146,
      "ì": 147,
      "í": 148,
      "î": 149,
      "ï": 150,
      "ð": 151,
      "ñ": 152,
      "ò": 153,
      "ó": 154,
      "ô": 155,
      "õ": 156,
      "ö": 157,
      "÷": 158,
      "ø": 159,
      "ù": 160,
      "ú": 161,
      "û": 162,
      "ü": 163,
      "ý": 164,
      "ā": 165,
      "ă": 166,
      "ć": 167,
      "č": 168,
      "ē": 169,
      "ę": 170,
      "ğ": 171,
      "ī": 172,
      "İ": 173,
      "ı": 174,
      "ł": 175,
      "ń": 176,
      "ŋ": 177,
      "ō": 178,
      "œ": 179,
      "ř": 180,
      "ś": 181,
      "Ş": 182,
      "ş": 183,
      "Š": 184,
      "š": 185,
      "ū": 186,
      "ż": 187,
      "Ž": 188,
      "ž": 189,
      "ɑ": 190,
      "ɔ": 191,
      "ə": 192,
      "ɛ": 193,
      "ɨ": 194,
      "ɪ": 195,
      "ʔ": 196,
      "ʹ": 197,
      "ʻ": 198,
      "ʼ": 199,
      "ˈ": 200,
      "ː": 201,
      "̃": 202,
      "̄": 203,
      "̅": 204,
      "̈": 205,
      "̧": 206,
      "̱": 207,
      "Α": 208,
      "Ε": 209,
      "Κ": 210,
      "Μ": 211,
      "Π": 212,
      "Σ": 213,
      "Τ": 214,
      "Φ": 215,
      "Ω": 216,
      "ά": 217,
      "έ": 218,
      "ή": 219,
      "ί": 220,
      "α": 221,
      "β": 222,
      "γ": 223,
      "δ": 224,
      "ε": 225,
      "η": 226,
      "θ": 227,
      "ι": 228,
      "κ": 229,
      "λ": 230,
      "μ": 231,
      "ν": 232,
      "ο": 233,
      "π": 234,
      "ρ": 235,
      "ς": 236,
      "σ": 237,
      "τ": 238,
      "υ": 239,
      "φ": 240,
      "χ": 241,
      "ω": 242,
      "ό": 243,
      "ύ": 244,
      "А": 245,
      "Б": 246,
      "В": 247,
      "Г": 248,
      "Д": 249,
      "Е": 250,
      "З": 251,
      "И": 252,
      "К": 253,
      "Л": 254,
      "М": 255,
      "Н": 256,
      "О": 257,
      "П": 258,
      "Р": 259,
      "С": 260,
      "Т": 261,
      "У": 262,
      "Ф": 263,
      "Х": 264,
      "Ч": 265,
      "Ш": 266,
      "Э": 267,
      "Ю": 268,
      "Я": 269,
      "а": 270,
      "б": 271,
      "в": 272,
      "г": 273,
      "д": 274,
      "е": 275,
      "ж": 276,
      "з": 277,
      "и": 278,
      "й": 279,
      "к": 280,
      "л": 281,
      "м": 282,
      "н": 283,
      "о": 284,
      "п": 285,
      "р": 286,
      "с": 287,
      "т": 288,
      "у": 289,
      "ф": 290,
      "х": 291,
      "ц": 292,
      "ч": 293,
      "ш": 294,
      "щ": 295,
      "ы": 296,
      "ь": 297,
      "э": 298,
      "ю": 299,
      "я": 300,
      "ѕ": 301,
      "і": 302,
      "ա": 303,
      "ե": 304,
      "ի": 305,
      "լ": 306,
      "կ": 307,
      "մ": 308,
      "յ": 309,
      "ն": 310,
      "ո": 311,
      "ս": 312,
      "տ": 313,
      "ր": 314,
      "ւ": 315,
      "ָ": 316,
      "א": 317,
      "ב": 318,
      "ג": 319,
      "ד": 320,
      "ה": 321,
      "ו": 322,
      "ז": 323,
      "ח": 324,
      "ט": 325,
      "י": 326,
      "כ": 327,
      "ל": 328,
      "ם": 329,
      "מ": 330,
      "ן": 331,
      "נ": 332,
      "ס": 333,
      "ע": 334,
      "פ": 335,
      "ק": 336,
      "ר": 337,
      "ש": 338,
      "ת": 339,
      "،": 340,
      "أ": 341,
      "ا": 342,
      "ب": 343,
      "ة": 344,
      "ت": 345,
      "ج": 346,
      "ح": 347,
      "خ": 348,
      "د": 349,
      "ر": 350,
      "ز": 351,
      "س": 352,
      "ش": 353,
      "ص": 354,
      "ط": 355,
      "ظ": 356,
      "ع": 357,
      "غ": 358,
      "ـ": 359,
      "ف": 360,
      "ق": 361,
      "ك": 362,
      "ل": 363,
      "م": 364,
      "ن": 365,
      "ه": 366,
      "و": 367,
      "ي": 368,
      "َ": 369,
      "ُ": 370,
      "ِ": 371,
      "پ": 372,
      "ک": 373,
      "گ": 374,
      "ہ": 375,
      "ی": 376,
      "ं": 377,
      "अ": 378,
      "आ": 379,
      "इ": 380,
      "ए": 381,
      "क": 382,
      "ख": 383,
      "ग": 384,
      "च": 385,
      "ज": 386,
      "ट": 387,
      "ड": 388,
      "ण": 389,
      "त": 390,
      "थ": 391,
      "द": 392,
      "न": 393,
      "प": 394,
      "फ": 395,
      "ब": 396,
      "भ": 397,
      "म": 398,
      "य": 399,
      "र": 400,
      "ल": 401,
      "व": 402,
      "श": 403,
      "ष": 404,
      "स": 405,
      "ह": 406,
      "ा": 407,
      "ि": 408,
      "ी": 409,
      "ु": 410,
      "ू": 411,
      "े": 412,
      "ै": 413,
      "ो": 414,
      "्": 415,
      "ক": 416,
      "ট": 417,
      "ত": 418,
      "ন": 419,
      "প": 420,
      "ব": 421,
      "ম": 422,
      "য": 423,
      "র": 424,
      "ল": 425,
      "স": 426,
      "়": 427,
      "া": 428,
      "ি": 429,
      "ু": 430,
      "ে": 431,
      "্": 432,
      "ਨ": 433,
      "ਪ": 434,
      "ਲ": 435,
      "ਹ": 436,
      "ਾ": 437,
      "ਿ": 438,
      "ન": 439,
      "બ": 440,
      "િ": 441,
      "க": 442,
      "ச": 443,
      "ட": 444,
      "த": 445,
      "ந": 446,
      "ன": 447,
      "ப": 448,
      "ம": 449,
      "ய": 450,
      "ர": 451,
      "ல": 452,
      "ள": 453,
      "வ": 454,
      "ா": 455,
      "ி": 456,
      "ு": 457,
      "்": 458,
      "్": 459,
      "ക": 460,
      "ത": 461,
      "ാ": 462,
      "ി": 463,
      "ു": 464,
      "്": 465,
      "ก": 466,
      "ข": 467,
      "ค": 468,
      "ง": 469,
      "ช": 470,
      "ด": 471,
      "ต": 472,
      "ท": 473,
      "น": 474,
      "บ": 475,
      "ป": 476,
      "พ": 477,
      "ภ": 478,
      "ม": 479,
      "ย": 480,
      "ร": 481,
      "ล": 482,
      "ว": 483,
      "ส": 484,
      "ห": 485,
      "อ": 486,
      "ั": 487,
      "า": 488,
      "ิ": 489,
      "ี": 490,
      "ื": 491,
      "ู": 492,
      "เ": 493,
      "แ": 494,
      "่": 495,
      "้": 496,
      "์": 497,
      "ა": 498,
      "ბ": 499,
      "გ": 500,
      "დ": 501,
      "ე": 502,
      "ვ": 503,
      "თ": 504,
      "ი": 505,
      "ლ": 506,
      "მ": 507,
      "ნ": 508,
      "ო": 509,
      "რ": 510,
      "ს": 511,
      "უ": 512,
      "ḥ": 513,
      "ṃ": 514,
      "ṇ": 515,
      "ṛ": 516,
      "ṣ": 517,
      "ṭ": 518,
      "ẹ": 519,
      "ị": 520,
      "ọ": 521,
      "ụ": 522,
      "‐": 523,
      "―": 524,
      "†": 525,
      "‡": 526,
      "•": 527,
      " ": 528,
      "′": 529,
      "‹": 530,
      "›": 531,
      "⁄": 532,
      "€": 533,
      "←": 534,
      "↑": 535,
      "→": 536,
      "↓": 537,
      "−": 538,
      "√": 539,
      "∞": 540,
      "≤": 541,
      "≥": 542,
      "─": 543,
      "│": 544,
      "├": 545,
      "▁": 546,
      "▐": 547,
      "■": 548,
      "▪": 549,
      "▬": 550,
      "▶": 551,
      "▷": 552,
      "►": 553,
      "▼": 554,
      "◆": 555,
      "●": 556,
      "☀": 557,
      "★": 558,
      "☆": 559,
      "♡": 560,
      "♥": 561,
      "♦": 562,
      "♪": 563,
      "♫": 564,
      "♬": 565,
      "✅": 566,
      "✓": 567,
      "✔": 568,
      "❤": 569,
      "➜": 570,
      "➡": 571,
      "⠀": 572,
      "、": 573,
      "。": 574,
      "《": 575,
      "》": 576,
      "「": 577,
      "」": 578,
      "『": 579,
      "』": 580,
      "【": 581,
      "】": 582,
      "〜": 583,
      "あ": 584,
      "い": 585,
      "う": 586,
      "え": 587,
      "お": 588,
      "か": 589,
      "が": 590,
      "き": 591,
      "く": 592,
      "こ": 593,
      "さ": 594,
      "し": 595,
      "す": 596,
      "せ": 597,
      "そ": 598,
      "た": 599,
      "だ": 600,
      "ち": 601,
      "っ": 602,
      "つ": 603,
      "て": 604,
      "で": 605,
      "と": 606,
      "ど": 607,
      "な": 608,
      "に": 609,
      "ね": 610,
      "の": 611,
      "は": 612,
      "ま": 613,
      "み": 614,
      "め": 615,
      "も": 616,
      "や": 617,
      "よ": 618,
      "ら": 619,
      "り": 620,
      "る": 621,
      "れ": 622,
      "わ": 623,
      "を": 624,
      "ん": 625,
      "ア": 626,
      "ィ": 627,
      "イ": 628,
      "ウ": 629,
      "ェ": 630,
      "エ": 631,
      "オ": 632,
      "カ": 633,
      "ガ": 634,
      "キ": 635,
      "ク": 636,
      "グ": 637,
      "ケ": 638,
      "コ": 639,
      "サ": 640,
      "ザ": 641,
      "シ": 642,
      "ジ": 643,
      "ス": 644,
      "ズ": 645,
      "セ": 646,
      "ソ": 647,
      "タ": 648,
      "ダ": 649,
      "チ": 650,
      "ッ": 651,
      "ツ": 652,
      "テ": 653,
      "デ": 654,
      "ト": 655,
      "ド": 656,
      "ナ": 657,
      "ニ": 658,
      "ネ": 659,
      "ノ": 660,
      "ハ": 661,
      "バ": 662,
      "パ": 663,
      "ビ": 664,
      "フ": 665,
      "ブ": 666,
      "プ": 667,
      "ベ": 668,
      "ペ": 669,
      "ホ": 670,
      "ボ": 671,
      "ポ": 672,
      "マ": 673,
      "ミ": 674,
      "ム": 675,
      "メ": 676,
      "モ": 677,
      "ャ": 678,
      "ュ": 679,
      "ョ": 680,
      "ラ": 681,
      "リ": 682,
      "ル": 683,
      "レ": 684,
      "ロ": 685,
      "ワ": 686,
      "ン": 687,
      "・": 688,
      "ー": 689,
      "一": 690,
      "三": 691,
      "上": 692,
      "下": 693,
      "不": 694,
      "与": 695,
      "专": 696,
      "世": 697,
      "个": 698,
      "中": 699,
      "为": 700,
      "主": 701,
      "举": 702,
      "么": 703,
      "之": 704,
      "乐": 705,
      "了": 706,
      "事": 707,
      "二": 708,
      "于": 709,
      "亚": 710,
      "交": 711,
      "享": 712,
      "人": 713,
      "什": 714,
      "今": 715,
      "介": 716,
      "从": 717,
      "他": 718,
      "代": 719,
      "以": 720,
      "件": 721,
      "会": 722,
      "位": 723,
      "体": 724,
      "何": 725,
      "作": 726,
      "你": 727,
      "使": 728,
      "來": 729,
      "信": 730,
      "像": 731,
      "元": 732,
      "光": 733,
      "克": 734,
      "免": 735,
      "入": 736,
      "全": 737,
      "公": 738,
      "关": 739,
      "典": 740,
      "内": 741,
      "出": 742,
      "分": 743,
      "列": 744,
      "利": 745,
      "别": 746,
      "到": 747,
      "制": 748,
      "前": 749,
      "剧": 750,
      "加": 751,
      "动": 752,
      "動": 753,
      "化": 754,
      "区": 755,
      "南": 756,
      "博": 757,
      "卡": 758,
      "原": 759,
      "去": 760,
      "友": 761,
      "发": 762,
      "口": 763,
      "可": 764,
      "台": 765,
      "号": 766,
      "合": 767,
      "同": 768,
      "名": 769,
      "后": 770,
      "吗": 771,
      "和": 772,
      "品": 773,
      "哈": 774,
      "商": 775,
      "器": 776,
      "回": 777,
      "国": 778,
      "图": 779,
      "圖": 780,
      "在": 781,
      "地": 782,
      "场": 783,
      "型": 784,
      "城": 785,
      "場": 786,
      "士": 787,
      "复": 788,
      "外": 789,
      "多": 790,
      "大": 791,
      "天": 792,
      "女": 793,
      "好": 794,
      "如": 795,
      "子": 796,
      "字": 797,
      "学": 798,
      "安": 799,
      "官": 800,
      "定": 801,
      "客": 802,
      "家": 803,
      "宿": 804,
      "小": 805,
      "尔": 806,
      "尼": 807,
      "展": 808,
      "山": 809,
      "州": 810,
      "工": 811,
      "已": 812,
      "巴": 813,
      "市": 814,
      "布": 815,
      "年": 816,
      "店": 817,
      "度": 818,
      "开": 819,
      "式": 820,
      "引": 821,
      "当": 822,
      "录": 823,
      "影": 824,
      "德": 825,
      "心": 826,
      "快": 827,
      "怎": 828,
      "思": 829,
      "性": 830,
      "情": 831,
      "意": 832,
      "愛": 833,
      "感": 834,
      "成": 835,
      "我": 836,
      "房": 837,
      "所": 838,
      "手": 839,
      "技": 840,
      "投": 841,
      "报": 842,
      "拉": 843,
      "推": 844,
      "提": 845,
      "播": 846,
      "放": 847,
      "教": 848,
      "数": 849,
      "文": 850,
      "料": 851,
      "斯": 852,
      "新": 853,
      "方": 854,
      "旅": 855,
      "日": 856,
      "时": 857,
      "明": 858,
      "易": 859,
      "星": 860,
      "是": 861,
      "時": 862,
      "曲": 863,
      "更": 864,
      "書": 865,
      "最": 866,
      "月": 867,
      "有": 868,
      "服": 869,
      "期": 870,
      "本": 871,
      "机": 872,
      "条": 873,
      "来": 874,
      "果": 875,
      "查": 876,
      "标": 877,
      "格": 878,
      "楼": 879,
      "模": 880,
      "次": 881,
      "歌": 882,
      "正": 883,
      "此": 884,
      "比": 885,
      "水": 886,
      "法": 887,
      "注": 888,
      "海": 889,
      "清": 890,
      "游": 891,
      "源": 892,
      "演": 893,
      "点": 894,
      "無": 895,
      "照": 896,
      "片": 897,
      "版": 898,
      "牌": 899,
      "物": 900,
      "特": 901,
      "理": 902,
      "生": 903,
      "用": 904,
      "田": 905,
      "电": 906,
      "男": 907,
      "画": 908,
      "発": 909,
      "發": 910,
      "白": 911,
      "的": 912,
      "目": 913,
      "相": 914,
      "看": 915,
      "真": 916,
      "知": 917,
      "示": 918,
      "社": 919,
      "神": 920,
      "离": 921,
      "科": 922,
      "程": 923,
      "稿": 924,
      "空": 925,
      "站": 926,
      "第": 927,
      "签": 928,
      "篇": 929,
      "系": 930,
      "索": 931,
      "线": 932,
      "细": 933,
      "网": 934,
      "置": 935,
      "美": 936,
      "者": 937,
      "能": 938,
      "自": 939,
      "色": 940,
      "花": 941,
      "英": 942,
      "落": 943,
      "蕃": 944,
      "薯": 945,
      "藤": 946,
      "行": 947,
      "表": 948,
      "装": 949,
      "西": 950,
      "要": 951,
      "覧": 952,
      "视": 953,
      "解": 954,
      "言": 955,
      "記": 956,
      "評": 957,
      "詞": 958,
      "語": 959,
      "論": 960,
      "论": 961,
      "评": 962,
      "词": 963,
      "详": 964,
      "语": 965,
      "说": 966,
      "谢": 967,
      "资": 968,
      "身": 969,
      "車": 970,
      "转": 971,
      "载": 972,
      "近": 973,
      "通": 974,
      "道": 975,
      "部": 976,
      "配": 977,
      "酒": 978,
      "里": 979,
      "重": 980,
      "野": 981,
      "金": 982,
      "长": 983,
      "開": 984,
      "集": 985,
      "面": 986,
      "音": 987,
      "页": 988,
      "题": 989,
      "飯": 990,
      "首": 991,
      "高": 992,
      "︎": 993,
      "️": 994,
      "🎬": 995,
      "📅": 996,
      "🔍": 997,
      "🔥": 998,
      "😀": 999,
      "😂": 1000,
      "😆": 1001,
      "😉": 1002,
      "😍": 1003,
      "😭": 1004,
      "🙁": 1005,
      "🙂": 1006,
      "🙏": 1007,
      "🤣": 1008,
      "th": 1009,
      "an": 1010,
      "in": 1011,
      "ku": 1012,
      ".\n": 1013,
      "en": 1014,
      "▁a": 1015,
      "▁n": 1016,
      "el": 1017,
      "is": 1018,
      "on": 1019,
      "▁u": 1020,
      "▁th": 1021,
      "er": 1022,
      "es": 1023,
      "▁w": 1024,
      "▁o": 1025,
      "▁s": 1026,
      "al": 1027,
      "▁the": 1028,
      "▁b": 1029,
      "le": 1030,
      "▁i": 1031,
      "▁t": 1032,
      "▁k": 1033,
      "ha": 1034,
      "▁y": 1035,
      "▁e": 1036,
      "ing": 1037,
      "wa": 1038,
      "re": 1039,
      "ou": 1040,
      "zi": 1041,
      "▁m": 1042,
      "ba": 1043,
      "and": 1044,
      "▁I": 1045,
      "at": 1046,
      "or": 1047,
      "kh": 1048,
      "om": 1049,
      "▁l": 1050,
      "▁ku": 1051,
      "▁c": 1052,
      "▁f": 1053,
      "▁d": 1054,
      "▁in": 1055,
      "▁p": 1056,
      "▁ng": 1057,
      "ed": 1058,
      "am": 1059,
      "▁to": 1060,
      "▁of": 1061,
      "ul": 1062,
      "he": 1063,
      "ay": 1064,
      "as": 1065,
      "▁uku": 1066,
      "ar": 1067,
      "un": 1068,
      "oku": 1069,
      "il": 1070,
      "▁is": 1071,
      "ye": 1072,
      "it": 1073,
      "▁T": 1074,
      "we": 1075,
      "ka": 1076,
      "▁A": 1077,
      "ph": 1078,
      "thi": 1079,
      "ela": 1080,
      "hl": 1081,
      "ke": 1082,
      "ol": 1083,
      "ic": 1084,
      "▁N": 1085,
      "▁and": 1086,
      "▁U": 1087,
      "ga": 1088,
      "um": 1089,
      "▁h": 1090,
      "ts": 1091,
      "▁S": 1092,
      "▁g": 1093,
      "▁be": 1094,
      "ion": 1095,
      "za": 1096,
      "ya": 1097,
      "us": 1098,
      "▁you": 1099,
      "im": 1100,
      "ele": 1101,
      "od": 1102,
      "em": 1103,
      "id": 1104,
      "os": 1105,
      "ab": 1106,
      "ie": 1107,
      "ve": 1108,
      "ent": 1109,
      "▁K": 1110,
      "▁on": 1111,
      "ot": 1112,
      "ow": 1113,
      "ok": 1114,
      "▁\"": 1115,
      "▁M": 1116,
      "▁W": 1117,
      "ang": 1118,
      "ile": 1119,
      "et": 1120,
      "yo": 1121,
      "▁v": 1122,
      "ith": 1123,
      "ze": 1124,
      "ac": 1125,
      "▁en": 1126,
      "ig": 1127,
      "▁B": 1128,
      "ala": 1129,
      "▁kw": 1130,
      "▁ha": 1131,
      "kho": 1132,
      "zin": 1133,
      "▁C": 1134,
      "ma": 1135,
      "▁The": 1136,
      "ur": 1137,
      "eb": 1138,
      "eni": 1139,
      "ib": 1140,
      "▁E": 1141,
      "ut": 1142,
      "ana": 1143,
      "..": 1144,
      "?\n": 1145,
      "▁ne": 1146,
      "e.\n": 1147,
      "▁for": 1148,
      "▁H": 1149,
      "ak": 1150,
      "isa": 1151,
      "ant": 1152,
      "ir": 1153,
      "▁L": 1154,
      "ek": 1155,
      "ers": 1156,
      "ho": 1157,
      "ro": 1158,
      "if": 1159,
      "'s": 1160,
      "▁kun": 1161,
      "▁re": 1162,
      "ad": 1163,
      "▁P": 1164,
      "▁D": 1165,
      "▁1": 1166,
      "▁kwa": 1167,
      "to": 1168,
      "ik": 1169,
      "▁ab": 1170,
      "▁-": 1171,
      "▁um": 1172,
      "dl": 1173,
      "▁al": 1174,
      "o.\n": 1175,
      "▁r": 1176,
      "ly": 1177,
      "▁z": 1178,
      "▁it": 1179,
      "eng": 1180,
      "▁(": 1181,
      "▁that": 1182,
      "ini": 1183,
      "pha": 1184,
      "▁Y": 1185,
      "▁In": 1186,
      "ani": 1187,
      "▁O": 1188,
      "ec": 1189,
      "da": 1190,
      "▁are": 1191,
      "e,": 1192,
      "o,": 1193,
      "▁F": 1194,
      "ob": 1195,
      "ulu": 1196,
      "▁ukuba": 1197,
      "▁un": 1198,
      "▁st": 1199,
      "ere": 1200,
      "▁we": 1201,
      "▁as": 1202,
      "▁im": 1203,
      "ill": 1204,
      "ter": 1205,
      "▁ye": 1206,
      "\"\n": 1207,
      "▁2": 1208,
      "ation": 1209,
      "ver": 1210,
      "ama": 1211,
      "ub": 1212,
      "▁G": 1213,
      "▁he": 1214,
      "▁an": 1215,
      "▁le": 1216,
      "mb": 1217,
      "ess": 1218,
      "elo": 1219,
      "tha": 1220,
      "eli": 1221,
      "est": 1222,
      "eben": 1223,
      "di": 1224,
      "ona": 1225,
      "▁with": 1226,
      "fun": 1227,
      "ch": 1228,
      "akh": 1229,
      "ge": 1230,
      "▁es": 1231,
      "▁ngoku": 1232,
      "st": 1233,
      "▁Th": 1234,
      "▁ezi": 1235,
      "onke": 1236,
      "▁us": 1237,
      "▁was": 1238,
      "end": 1239,
      "ayo": 1240,
      "▁not": 1241,
      "la": 1242,
      "▁Ng": 1243,
      "ane": 1244,
      "ula": 1245,
      "ce": 1246,
      "ung": 1247,
      "va": 1248,
      "ld": 1249,
      "anye": 1250,
      "anga": 1251,
      "zo": 1252,
      "▁lo": 1253,
      "iv": 1254,
      "thu": 1255,
      "ind": 1256,
      "▁die": 1257,
      "op": 1258,
      "ra": 1259,
      "alo": 1260,
      "▁se": 1261,
      "▁J": 1262,
      "qu": 1263,
      "s.\n": 1264,
      "hi": 1265,
      "▁nj": 1266,
      "!\n": 1267,
      "hat": 1268,
      "▁do": 1269,
      "ali": 1270,
      "▁R": 1271,
      "...\n": 1272,
      "▁your": 1273,
      "pp": 1274,
      "▁have": 1275,
      "tu": 1276,
      "▁em": 1277,
      "wo": 1278,
      "▁aba": 1279,
      "hla": 1280,
      "▁Uku": 1281,
      ".\"\n": 1282,
      "ther": 1283,
      "▁am": 1284,
      "nd": 1285,
      "igh": 1286,
      "lu": 1287,
      "▁com": 1288,
      "▁fr": 1289,
      "▁kunye": 1290,
      "▁con": 1291,
      "▁will": 1292,
      "▁wor": 1293,
      "bu": 1294,
      "be": 1295,
      "▁wh": 1296,
      "▁wa": 1297,
      "▁kwi": 1298,
      "ong": 1299,
      "▁oku": 1300,
      "the": 1301,
      "isi": 1302,
      "▁pr": 1303,
      "▁nga": 1304,
      "'t": 1305,
      "▁j": 1306,
      "▁can": 1307,
      "▁zi": 1308,
      "iso": 1309,
      "ileyo": 1310,
      "▁ba": 1311,
      "ore": 1312,
      "ity": 1313,
      "wen": 1314,
      "▁'": 1315,
      "▁at": 1316,
      "ist": 1317,
      "▁or": 1318,
      "▁na": 1319,
      "▁kwe": 1320,
      "phe": 1321,
      "ond": 1322,
      "▁ama": 1323,
      "ct": 1324,
      "ies": 1325,
      "ome": 1326,
      "▁this": 1327,
      "▁yoku": 1328,
      "uk": 1329,
      "▁It": 1330,
      "si": 1331,
      "▁kwaye": 1332,
      "▁li": 1333,
      "▁pro": 1334,
      "lo": 1335,
      "seben": 1336,
      "▁ok": 1337,
      "▁by": 1338,
      "▁go": 1339,
      "▁no": 1340,
      "uthi": 1341,
      "00": 1342,
      "▁ex": 1343,
      "inga": 1344,
      "odwa": 1345,
      "ise": 1346,
      "▁si": 1347,
      "▁me": 1348,
      "ule": 1349,
      "ust": 1350,
      "se": 1351,
      "▁de": 1352,
      "int": 1353,
      "▁all": 1354,
      "▁el": 1355,
      "esi": 1356,
      "yi": 1357,
      "art": 1358,
      "ase": 1359,
      "▁ma": 1360,
      "xa": 1361,
      "▁from": 1362,
      "ort": 1363,
      "out": 1364,
      "▁ezin": 1365,
      "ight": 1366,
      "ish": 1367,
      "weni": 1368,
      "ina": 1369,
      "▁nge": 1370,
      "ili": 1371,
      "ng": 1372,
      "ri": 1373,
      "bo": 1374,
      "dlela": 1375,
      "oko": 1376,
      "ate": 1377,
      "bi": 1378,
      "de": 1379,
      "our": 1380,
      "ell": 1381,
      "▁sa": 1382,
      "antu": 1383,
      "one": 1384,
      "▁my": 1385,
      "ci": 1386,
      "▁la": 1387,
      "▁izi": 1388,
      "ry": 1389,
      "uku": 1390,
      "ould": 1391,
      "▁om": 1392,
      "▁i-": 1393,
      "▁ukuthi": 1394,
      "iswa": 1395,
      "ast": 1396,
      "hle": 1397,
      "▁so": 1398,
      "s,": 1399,
      "ine": 1400,
      "kha": 1401,
      "ene": 1402,
      "any": 1403,
      "all": 1404,
      "eka": 1405,
      "akhulu": 1406,
      "▁sh": 1407,
      "ame": 1408,
      "▁futhi": 1409,
      "▁ch": 1410,
      "esha": 1411,
      "▁they": 1412,
      "ect": 1413,
      "▁kakhulu": 1414,
      "nt": 1415,
      "sh": 1416,
      "ost": 1417,
      "▁3": 1418,
      ")\n": 1419,
      "▁su": 1420,
      "ents": 1421,
      "▁sp": 1422,
      "ep": 1423,
      "elwa": 1424,
      "es.\n": 1425,
      "gh": 1426,
      "ive": 1427,
      "olo": 1428,
      "ink": 1429,
      "▁nom": 1430,
      "wazi": 1431,
      "▁has": 1432,
      "▁noku": 1433,
      "ag": 1434,
      "▁ze": 1435,
      "thand": 1436,
      "bon": 1437,
      "▁ya": 1438,
      "▁te": 1439,
      "▁way": 1440,
      "▁pl": 1441,
      "bh": 1442,
      "pho": 1443,
      "ide": 1444,
      "ale": 1445,
      "tsh": 1446,
      "khe": 1447,
      "▁van": 1448,
      "fan": 1449,
      "li": 1450,
      "▁ka": 1451,
      "▁Ku": 1452,
      "now": 1453,
      "elek": 1454,
      "▁You": 1455,
      "ese": 1456,
      "anj": 1457,
      "▁ver": 1458,
      "▁tim": 1459,
      "▁ez": 1460,
      "▁need": 1461,
      "ena": 1462,
      "tho": 1463,
      "▁V": 1464,
      "zu": 1465,
      "ord": 1466,
      "▁izin": 1467,
      "y.\n": 1468,
      "▁20": 1469,
      "yaka": 1470,
      "xesha": 1471,
      "▁njeng": 1472,
      "▁up": 1473,
      "▁Is": 1474,
      "uc": 1475,
      "▁Un": 1476,
      "ally": 1477,
      "▁into": 1478,
      "qala": 1479,
      ":\n": 1480,
      "▁his": 1481,
      "i.\n": 1482,
      "▁za": 1483,
      "▁one": 1484,
      "▁He": 1485,
      "▁but": 1486,
      "▁loku": 1487,
      "rou": 1488,
      "▁ke": 1489,
      "ll": 1490,
      "▁We": 1491,
      "khu": 1492,
      "uka": 1493,
      "▁them": 1494,
      "so": 1495,
      "▁This": 1496,
      "a.\n": 1497,
      "ose": 1498,
      "▁year": 1499,
      "ap": 1500,
      "qh": 1501,
      "phi": 1502,
      "▁eku": 1503,
      "▁know": 1504,
      "▁who": 1505,
      "▁about": 1506,
      "mba": 1507,
      "▁pe": 1508,
      "es,": 1509,
      "way": 1510,
      "▁op": 1511,
      "ous": 1512,
      "▁I'": 1513,
      "ach": 1514,
      "ure": 1515,
      "▁okanye": 1516,
      "▁if": 1517,
      "...": 1518,
      "▁imp": 1519,
      "ment": 1520,
      "oni": 1521,
      "▁wat": 1522,
      "gc": 1523,
      "ed.\n": 1524,
      "zwe": 1525,
      "ans": 1526,
      "▁their": 1527,
      "▁'n": 1528,
      "ing.\n": 1529,
      "-1": 1530,
      "fa": 1531,
      "te": 1532,
      "▁Z": 1533,
      "ants": 1534,
      "khulu": 1535,
      "ru": 1536,
      "ople": 1537,
      "dawo": 1538,
      "ack": 1539,
      "on't": 1540,
      "▁ac": 1541,
      "▁ngo": 1542,
      "ff": 1543,
      "▁Um": 1544,
      "elwe": 1545,
      "▁comp": 1546,
      "oo": 1547,
      "▁aku": 1548,
      "▁out": 1549,
      "▁4": 1550,
      "▁nie": 1551,
      "ud": 1552,
      "elele": 1553,
      "ake": 1554,
      "ew": 1555,
      "enz": 1556,
      "▁nd": 1557,
      "elela": 1558,
      "act": 1559,
      "anc": 1560,
      "▁there": 1561,
      "▁Ch": 1562,
      "▁Nga": 1563,
      "kathi": 1564,
      "wana": 1565,
      "ild": 1566,
      "▁ub": 1567,
      "gq": 1568,
      "ich": 1569,
      "enza": 1570,
      "emb": 1571,
      "andla": 1572,
      "qin": 1573,
      "▁what": 1574,
      "▁And": 1575,
      "phela": 1576,
      "▁uk": 1577,
      "▁koku": 1578,
      "fum": 1579,
      "vel": 1580,
      "▁bo": 1581,
      "▁kuba": 1582,
      "obo": 1583,
      "▁ad": 1584,
      "ite": 1585,
      "ayi": 1586,
      "▁God": 1587,
      "▁het": 1588,
      "ulo": 1589,
      "hamb": 1590,
      "isek": 1591,
      "amp": 1592,
      "tsha": 1593,
      "ko": 1594,
      "lung": 1595,
      "inzi": 1596,
      "▁people": 1597,
      "able": 1598,
      "▁ngen": 1599,
      "▁ph": 1600,
      "zulu": 1601,
      "▁kodwa": 1602,
      "reat": 1603,
      "ikha": 1604,
      "ta": 1605,
      "ank": 1606,
      "ard": 1607,
      "iz": 1608,
      "enze": 1609,
      "akhe": 1610,
      "▁5": 1611,
      "red": 1612,
      "andle": 1613,
      "▁day": 1614,
      "ty": 1615,
      "zisa": 1616,
      "i,": 1617,
      "ange": 1618,
      "▁zoku": 1619,
      "▁ing": 1620,
      "▁work": 1621,
      "▁more": 1622,
      "ings": 1623,
      "▁some": 1624,
      "ca": 1625,
      "▁ev": 1626,
      "▁res": 1627,
      "emp": 1628,
      "▁St": 1629,
      "▁get": 1630,
      "▁On": 1631,
      "ice": 1632,
      "phum": 1633,
      "er.\n": 1634,
      "very": 1635,
      "ika": 1636,
      "▁mo": 1637,
      "▁Kwa": 1638,
      "ola": 1639,
      "▁any": 1640,
      "ced": 1641,
      "kulu": 1642,
      "xo": 1643,
      "▁want": 1644,
      ":1": 1645,
      "orm": 1646,
      "▁been": 1647,
      "▁eli": 1648,
      "▁Wh": 1649,
      "wenza": 1650,
      "▁I-": 1651,
      "fer": 1652,
      "wu": 1653,
      "▁nam": 1654,
      "▁bab": 1655,
      "a,": 1656,
      "ntu": 1657,
      "▁yakho": 1658,
      "▁our": 1659,
      "▁qu": 1660,
      "hlala": 1661,
      "unga": 1662,
      "▁kum": 1663,
      "▁also": 1664,
      "use": 1665,
      "bal": 1666,
      "ree": 1667,
      "ens": 1668,
      "▁tr": 1669,
      "ions": 1670,
      "▁If": 1671,
      "▁What": 1672,
      "funeka": 1673,
      "der": 1674,
      "land": 1675,
      "n't": 1676,
      "▁...\n": 1677,
      "▁esi": 1678,
      "tr": 1679,
      "wan": 1680,
      "▁uya": 1681,
      "▁app": 1682,
      "phu": 1683,
      "ely": 1684,
      "thing": 1685,
      "▁ukuze": 1686,
      "▁like": 1687,
      "▁abantu": 1688,
      "▁other": 1689,
      "▁201": 1690,
      "sebenzi": 1691,
      "▁her": 1692,
      "▁isi": 1693,
      "▁exp": 1694,
      "▁Le": 1695,
      "▁ngok": 1696,
      "aye": 1697,
      "ayo.\n": 1698,
      "ount": 1699,
      "pt": 1700,
      "hluk": 1701,
      "ace": 1702,
      "▁ar": 1703,
      "phamb": 1704,
      "elf": 1705,
      "irst": 1706,
      "▁ey": 1707,
      "khona": 1708,
      "av": 1709,
      "own": 1710,
      "ary": 1711,
      "ated": 1712,
      "led": 1713,
      "▁There": 1714,
      "gama": 1715,
      "▁time": 1716,
      "ny": 1717,
      "▁were": 1718,
      "▁him": 1719,
      "-2": 1720,
      ").\n": 1721,
      "inyaka": 1722,
      "umb": 1723,
      "ign": 1724,
      "▁noma": 1725,
      "khi": 1726,
      "▁Lo": 1727,
      "▁Am": 1728,
      "ath": 1729,
      "omb": 1730,
      "phandle": 1731,
      "enc": 1732,
      "ip": 1733,
      "ash": 1734,
      "▁Im": 1735,
      "▁say": 1736,
      "hlobo": 1737,
      "ence": 1738,
      "eko": 1739,
      "cess": 1740,
      "▁per": 1741,
      "▁lif": 1742,
      "▁which": 1743,
      "▁fe": 1744,
      "▁Ab": 1745,
      "▁ndi": 1746,
      "▁when": 1747,
      "▁19": 1748,
      "ikhathi": 1749,
      "ough": 1750,
      "ire": 1751,
      "untu": 1752,
      "▁new": 1753,
      "ike": 1754,
      "ass": 1755,
      "kun": 1756,
      "▁I'm": 1757,
      "▁af": 1758,
      "hlaba": 1759,
      "qo": 1760,
      "funa": 1761,
      "▁bu": 1762,
      "▁As": 1763,
      ",\n": 1764,
      "▁hel": 1765,
      "abo": 1766,
      "ia": 1767,
      "▁said": 1768,
      "ade": 1769,
      "▁may": 1770,
      "erv": 1771,
      "ction": 1772,
      "▁kwi-": 1773,
      "▁don't": 1774,
      "ee": 1775,
      "▁inc": 1776,
      "▁word": 1777,
      "▁6": 1778,
      "eho": 1779,
      "anda": 1780,
      "ding": 1781,
      "▁Kodwa": 1782,
      "▁would": 1783,
      "ance": 1784,
      "▁make": 1785,
      "▁kanye": 1786,
      "▁good": 1787,
      "ifun": 1788,
      "▁\"I": 1789,
      "▁lwe": 1790,
      "▁zonke": 1791,
      "▁had": 1792,
      "iya": 1793,
      "ition": 1794,
      "▁part": 1795,
      "lun": 1796,
      "iseben": 1797,
      "wi": 1798,
      "▁kus": 1799,
      "ial": 1800,
      "oll": 1801,
      "ress": 1802,
      "zwa": 1803,
      "s\n": 1804,
      "ehova": 1805,
      "rd": 1806,
      "'re": 1807,
      "oc": 1808,
      "enk": 1809,
      "▁than": 1810,
      "▁every": 1811,
      "phezulu": 1812,
      "qa": 1813,
      "anzi": 1814,
      "gu": 1815,
      "nye": 1816,
      "ibh": 1817,
      "age": 1818,
      "ical": 1819,
      "▁xa": 1820,
      "ila": 1821,
      "zing": 1822,
      "osi": 1823,
      "▁look": 1824,
      "cha": 1825,
      "▁man": 1826,
      "ety": 1827,
      "ons": 1828,
      "enzi": 1829,
      "og": 1830,
      "▁inter": 1831,
      "▁comm": 1832,
      "▁Ngoku": 1833,
      "Thi": 1834,
      "hlang": 1835,
      "▁kufuneka": 1836,
      "aar": 1837,
      "▁sy": 1838,
      "qub": 1839,
      "ible": 1840,
      "▁ubu": 1841,
      "▁first": 1842,
      "▁pre": 1843,
      "▁kuphela": 1844,
      "xh": 1845,
      "ult": 1846,
      "▁child": 1847,
      "▁But": 1848,
      "▁dat": 1849,
      "hamba": 1850,
      "▁use": 1851,
      "▁soku": 1852,
      "▁wom": 1853,
      "▁gr": 1854,
      "ful": 1855,
      "y,": 1856,
      "▁only": 1857,
      "ingi": 1858,
      "ono": 1859,
      "▁help": 1860,
      "-A": 1861,
      "theng": 1862,
      "day": 1863,
      "lic": 1864,
      "elana": 1865,
      "enga": 1866,
      "fanele": 1867,
      "oss": 1868,
      "ound": 1869,
      "▁lwa": 1870,
      "▁dif": 1871,
      "pa": 1872,
      "▁sc": 1873,
      "qond": 1874,
      "ren": 1875,
      "form": 1876,
      "fore": 1877,
      "▁now": 1878,
      "ing,": 1879,
      "com": 1880,
      "▁It's": 1881,
      "▁dis": 1882,
      "▁woku": 1883,
      "▁They": 1884,
      "ue": 1885,
      "▁bet": 1886,
      "▁world": 1887,
      "alwa": 1888,
      "▁how": 1889,
      "oy": 1890,
      "▁vir": 1891,
      "vum": 1892,
      "elekileyo": 1893,
      "▁iin": 1894,
      "itt": 1895,
      "▁yonke": 1896,
      "▁very": 1897,
      "yo.\n": 1898,
      "▁ukus": 1899,
      "▁Al": 1900,
      "khul": 1901,
      "ood": 1902,
      "▁yi": 1903,
      "ck": 1904,
      "kile": 1905,
      "ilo": 1906,
      "▁lu": 1907,
      "▁met": 1908,
      "fu": 1909,
      "▁7": 1910,
      "erm": 1911,
      "ric": 1912,
      ";\n": 1913,
      "old": 1914,
      "thanda": 1915,
      "▁should": 1916,
      "▁ge": 1917,
      "▁pha": 1918,
      "▁ye-": 1919,
      "ations": 1920,
      "dla": 1921,
      "▁over": 1922,
      "▁kom": 1923,
      "▁Ph": 1924,
      "▁10": 1925,
      "dala": 1926,
      "▁its": 1927,
      "▁No": 1928,
      "fund": 1929,
      "▁kh": 1930,
      "▁ob": 1931,
      "▁does": 1932,
      "ier": 1933,
      "▁8": 1934,
      "wn": 1935,
      "▁cl": 1936,
      ":2": 1937,
      "▁just": 1938,
      "▁nje": 1939,
      "▁Ama": 1940,
      "pr": 1941,
      "oda": 1942,
      "▁ag": 1943,
      "▁take": 1944,
      "▁Ukuba": 1945,
      "its": 1946,
      "oma": 1947,
      "▁For": 1948,
      "▁ay": 1949,
      "itha": 1950,
      "obu": 1951,
      "ne": 1952,
      "inye": 1953,
      "▁bel": 1954,
      "▁olu": 1955,
      "▁eng": 1956,
      "▁Pr": 1957,
      "▁Em": 1958,
      "▁An": 1959,
      "antsi": 1960,
      "▁co": 1961,
      "pl": 1962,
      "▁ink": 1963,
      "▁prod": 1964,
      "vid": 1965,
      "▁nto": 1966,
      "▁many": 1967,
      "▁love": 1968,
      "▁see": 1969,
      "▁Be": 1970,
      "wele": 1971,
      "▁pers": 1972,
      "ily": 1973,
      "gain": 1974,
      "qinisek": 1975,
      "zim": 1976,
      "▁eb": 1977,
      "▁int": 1978,
      "▁ca": 1979,
      "▁did": 1980,
      "▁mar": 1981,
      "usa": 1982,
      "▁br": 1983,
      "zinto": 1984,
      "▁Fr": 1985,
      "▁Nd": 1986,
      "▁ind": 1987,
      "hn": 1988,
      "hay": 1989,
      "▁ek": 1990,
      "▁yam": 1991,
      "▁bas": 1992,
      "▁So": 1993,
      "ick": 1994,
      "▁off": 1995,
      "▁ro": 1996,
      "▁best": 1997,
      "▁izinto": 1998,
      "▁kuku": 1999,
      "▁All": 2000,
      "▁ngu": 2001,
      "▁sin": 2002,
      "▁imi": 2003,
      "▁unga": 2004,
      "ble": 2005,
      "▁Af": 2006,
      "fumana": 2007,
      "▁Kwaye": 2008,
      "thile": 2009,
      "▁wam": 2010,
      "ning": 2011,
      "ory": 2012,
      "iss": 2013,
      "▁ent": 2014,
      "enye": 2015,
      "wes": 2016,
      "balule": 2017,
      "▁ngaphandle": 2018,
      "ited": 2019,
      "▁kub": 2020,
      "xt": 2021,
      "▁ung": 2022,
      "▁Q": 2023,
      "▁ul": 2024,
      "oba": 2025,
      "ers.\n": 2026,
      "▁ang": 2027,
      "kho,": 2028,
      "▁years": 2029,
      "▁fa": 2030,
      "sebenza": 2031,
      "er,": 2032,
      "▁dit": 2033,
      "▁well": 2034,
      "vu": 2035,
      "akala": 2036,
      "▁reg": 2037,
      "▁My": 2038,
      "anje": 2039,
      "Thixo": 2040,
      "nga": 2041,
      "▁it's": 2042,
      "▁these": 2043,
      "▁cont": 2044,
      "▁Ndi": 2045,
      "alo,": 2046,
      "▁X": 2047,
      "▁des": 2048,
      "▁Die": 2049,
      "kho.\n": 2050,
      "▁indlela": 2051,
      "▁most": 2052,
      "▁fam": 2053,
      "esu": 2054,
      "amb": 2055,
      "aya": 2056,
      "yin": 2057,
      "▁9": 2058,
      "ki": 2059,
      "qubo": 2060,
      "▁Ne": 2061,
      "▁back": 2062,
      "ed,": 2063,
      "▁she": 2064,
      "▁Do": 2065,
      "phakathi": 2066,
      "zela": 2067,
      "ors": 2068,
      "ont": 2069,
      "ram": 2070,
      "na": 2071,
      "o\n": 2072,
      "cin": 2073,
      "ush": 2074,
      "ile.\n": 2075,
      "okuba": 2076,
      "▁think": 2077,
      "▁hand": 2078,
      "wane": 2079,
      "ayo,": 2080,
      "▁two": 2081,
      "har": 2082,
      "alunga": 2083,
      "?\"\n": 2084,
      "co": 2085,
      "▁\"N": 2086,
      "▁Oku": 2087,
      "en.\n": 2088,
      "per": 2089,
      "▁Com": 2090,
      "▁yes": 2091,
      "▁end": 2092,
      "kwazi": 2093,
      "▁How": 2094,
      "▁dec": 2095,
      "▁\"W": 2096,
      "▁right": 2097,
      "rough": 2098,
      "uma": 2099,
      "ham": 2100,
      "urn": 2101,
      "ft": 2102,
      "ain": 2103,
      "kulun": 2104,
      "▁\"T": 2105,
      "kulunkulu": 2106,
      "qhub": 2107,
      "▁e-": 2108,
      "zima": 2109,
      "▁[": 2110,
      "ony": 2111,
      "onga": 2112,
      "▁uy": 2113,
      "alk": 2114,
      "iswe": 2115,
      "qal": 2116,
      "▁sim": 2117,
      "▁going": 2118,
      "eleni": 2119,
      "▁beca": 2120,
      "▁differ": 2121,
      "▁phakathi": 2122,
      "akal": 2123,
      "iy": 2124,
      "ulwa": 2125,
      "ious": 2126,
      "ling": 2127,
      "'\n": 2128,
      "▁sm": 2129,
      "▁because": 2130,
      "▁uma": 2131,
      "▁ezing": 2132,
      "▁iim": 2133,
      "▁En": 2134,
      "▁cons": 2135,
      "ini.\n": 2136,
      "hip": 2137,
      "▁wr": 2138,
      "orn": 2139,
      "▁play": 2140,
      "▁nges": 2141,
      "▁kwim": 2142,
      "▁ngum": 2143,
      "▁Re": 2144,
      "phezu": 2145,
      "tern": 2146,
      "anya": 2147,
      "▁kwin": 2148,
      "ting": 2149,
      "▁acc": 2150,
      "▁beg": 2151,
      "pe": 2152,
      "▁ngenxa": 2153,
      "les": 2154,
      "▁kuya": 2155,
      "thi,": 2156,
      "▁nab": 2157,
      "etyenz": 2158,
      "▁kan": 2159,
      "asi": 2160,
      "▁web": 2161,
      "ts.\n": 2162,
      "qi": 2163,
      "ation.\n": 2164,
      "▁it.\n": 2165,
      "▁str": 2166,
      "▁.\n": 2167,
      "ness": 2168,
      "▁again": 2169,
      "▁serv": 2170,
      "000": 2171,
      "▁ngam": 2172,
      "▁import": 2173,
      "▁ple": 2174,
      "we.\n": 2175,
      "uch": 2176,
      "▁/": 2177,
      "▁Aba": 2178,
      "▁_": 2179,
      "▁umntu": 2180,
      "Nkulunkulu": 2181,
      "oor": 2182,
      "ollow": 2183,
      "▁then": 2184,
      "ion.\n": 2185,
      "▁nem": 2186,
      "zeka": 2187,
      "ansi": 2188,
      "▁kung": 2189,
      "tain": 2190,
      "▁ngem": 2191,
      "ates": 2192,
      "eld": 2193,
      "ah": 2194,
      "▁emva": 2195,
      "▁after": 2196,
      "owe": 2197,
      "▁dev": 2198,
      ",\"": 2199,
      "▁long": 2200,
      "▁find": 2201,
      "ual": 2202,
      "uny": 2203,
      "ark": 2204,
      "▁ib": 2205,
      "ities": 2206,
      "atsh": 2207,
      "anisa": 2208,
      "unye": 2209,
      "round": 2210,
      "▁kube": 2211,
      "inda": 2212,
      "▁sal": 2213,
      "▁own": 2214,
      "iness": 2215,
      "▁yom": 2216,
      "arn": 2217,
      "▁aban": 2218,
      "uli": 2219,
      "▁malunga": 2220,
      "▁happ": 2221,
      "ways": 2222,
      "thetha": 2223,
      "▁rel": 2224,
      "phambili": 2225,
      "ris": 2226,
      "▁kul": 2227,
      "wule": 2228,
      "aba": 2229,
      "oto": 2230,
      "esus": 2231,
      "elelo": 2232,
      "▁great": 2233,
      "▁person": 2234,
      "▁Jo": 2235,
      "ukela": 2236,
      "▁even": 2237,
      "▁To": 2238,
      "ulle": 2239,
      "▁life": 2240,
      "▁week": 2241,
      "vela": 2242,
      "ys": 2243,
      "fana": 2244,
      "20": 2245,
      "▁ixesha": 2246,
      "az": 2247,
      "zek": 2248,
      "elayo": 2249,
      "▁iya": 2250,
      "▁ol": 2251,
      "ved": 2252,
      "jeng": 2253,
      "▁enga": 2254,
      "ating": 2255,
      "ope": 2256,
      "zinye": 2257,
      "ende": 2258,
      "ork": 2259,
      "▁ii": 2260,
      "anis": 2261,
      "self": 2262,
      "ango": 2263,
      "kazi": 2264,
      "▁read": 2265,
      "ampani": 2266,
      "▁njani": 2267,
      "▁lapho": 2268,
      "arch": 2269,
      "ower": 2270,
      "emba": 2271,
      "omi": 2272,
      "rist": 2273,
      "▁New": 2274,
      "▁&": 2275,
      "▁iz": 2276,
      "weyo": 2277,
      "▁Se": 2278,
      "▁When": 2279,
      "eni.\n": 2280,
      "onge": 2281,
      "mbi": 2282,
      "oya": 2283,
      "▁Jesus": 2284,
      "thatha": 2285,
      "▁.": 2286,
      "olog": 2287,
      "we,": 2288,
      "phelele": 2289,
      "▁Ngaba": 2290,
      "▁bus": 2291,
      "jalo": 2292,
      "▁zin": 2293,
      "▁\"A": 2294,
      "▁bes": 2295,
      "▁ngom": 2296,
      "ember": 2297,
      "idl": 2298,
      "ile,": 2299,
      "▁down": 2300,
      "fe": 2301,
      "wer": 2302,
      "▁start": 2303,
      "ific": 2304,
      "ver,": 2305,
      "▁ty": 2306,
      "▁That": 2307,
      "▁Ar": 2308,
      "▁min": 2309,
      "▁important": 2310,
      "▁ons": 2311,
      "▁supp": 2312,
      "izi": 2313,
      "esh": 2314,
      "▁car": 2315,
      "▁follow": 2316,
      "▁sec": 2317,
      "▁khona": 2318,
      "und": 2319,
      "▁before": 2320,
      "thi:": 2321,
      "▁same": 2322,
      "▁ga": 2323,
      "▁phamb": 2324,
      "umbi": 2325,
      "▁jy": 2326,
      "▁used": 2327,
      "▁where": 2328,
      "▁come": 2329,
      "▁those": 2330,
      "antwana": 2331,
      "▁mon": 2332,
      "▁children": 2333,
      "ivers": 2334,
      "imi": 2335,
      "▁col": 2336,
      "hlaw": 2337,
      "lish": 2338,
      "funda": 2339,
      "▁fri": 2340,
      "▁wonke": 2341,
      "ook": 2342,
      "ational": 2343,
      "▁uM": 2344,
      "▁La": 2345,
      "ward": 2346,
      "ement": 2347,
      "▁par": 2348,
      "▁must": 2349,
      "▁bonke": 2350,
      "gqib": 2351,
      "▁yin": 2352,
      "▁made": 2353,
      "ithe": 2354,
      "▁aan": 2355,
      "▁tra": 2356,
      "ela.\n": 2357,
      "▁add": 2358,
      "▁18": 2359,
      "▁eas": 2360,
      "ime": 2361,
      "▁eza": 2362,
      "andi": 2363,
      "wal": 2364,
      "▁men": 2365,
      "ceda": 2366,
      "ular": 2367,
      ":3": 2368,
      ".\"": 2369,
      "kwa": 2370,
      "ders": 2371,
      "▁could": 2372,
      "▁15": 2373,
      "▁mat": 2374,
      "▁count": 2375,
      "khol": 2376,
      "▁eff": 2377,
      "▁ukun": 2378,
      "hlu": 2379,
      "dlu": 2380,
      "▁much": 2381,
      "▁ne-": 2382,
      "▁ear": 2383,
      "idi": 2384,
      "ener": 2385,
      "uy": 2386,
      "▁rem": 2387,
      "▁through": 2388,
      "▁Ke": 2389,
      "enzeka": 2390,
      "ov": 2391,
      "▁ask": 2392,
      "es\n": 2393,
      "ture": 2394,
      "veliso": 2395,
      "▁name": 2396,
      "▁\"\n": 2397,
      "▁different": 2398,
      "ats": 2399,
      "ody": 2400,
      "sebenz": 2401,
      "▁ezimb": 2402,
      "intoni": 2403,
      "▁12": 2404,
      "▁Uma": 2405,
      "alth": 2406,
      "▁$": 2407,
      "els": 2408,
      "ints": 2409,
      "▁ukuth": 2410,
      "▁att": 2411,
      "anu": 2412,
      "law": 2413,
      "▁Me": 2414,
      "▁ukuya": 2415,
      "▁Si": 2416,
      "▁ed": 2417,
      "ouse": 2418,
      "▁Izi": 2419,
      "other": 2420,
      "▁kuye": 2421,
      "me": 2422,
      "an.\n": 2423,
      "▁always": 2424,
      "▁resp": 2425,
      "xab": 2426,
      "▁bl": 2427,
      "▁numb": 2428,
      "▁inv": 2429,
      "le.\n": 2430,
      "angela": 2431,
      "▁sit": 2432,
      "jalo,": 2433,
      "▁sing": 2434,
      "hlukene": 2435,
      "ility": 2436,
      "▁kwem": 2437,
      "▁Futhi": 2438,
      "sa": 2439,
      "khus": 2440,
      "sebenzisa": 2441,
      "▁200": 2442,
      "hol": 2443,
      "ason": 2444,
      "theth": 2445,
      "▁wab": 2446,
      "ven": 2447,
      "ntwana": 2448,
      "▁such": 2449,
      "▁po": 2450,
      "hool": 2451,
      "▁friend": 2452,
      "angona": 2453,
      "▁inst": 2454,
      "▁rec": 2455,
      "uman": 2456,
      "Yehova": 2457,
      "▁11": 2458,
      "wab": 2459,
      "▁yase": 2460,
      "▁bam": 2461,
      "ungu": 2462,
      "t.\n": 2463,
      "▁liv": 2464,
      "ibe": 2465,
      "ima": 2466,
      "cial": 2467,
      "),": 2468,
      "ongo": 2469,
      "'ll": 2470,
      "▁still": 2471,
      "▁kule": 2472,
      "▁ukwenza": 2473,
      "▁Aku": 2474,
      "▁lom": 2475,
      "aking": 2476,
      "▁umsebenzi": 2477,
      "▁Ok": 2478,
      "uring": 2479,
      "▁De": 2480,
      "▁fin": 2481,
      "fi": 2482,
      "▁phe": 2483,
      "▁Christ": 2484,
      "uth": 2485,
      "▁ins": 2486,
      "▁(1": 2487,
      "▁vers": 2488,
      "yanga": 2489,
      "stem": 2490,
      "uva": 2491,
      "▁She": 2492,
      "wano": 2493,
      "▁kakhulu.\n": 2494,
      "▁old": 2495,
      "▁try": 2496,
      "▁form": 2497,
      "vo": 2498,
      "ins": 2499,
      "▁each": 2500,
      "ows": 2501,
      "ibon": 2502,
      "bona": 2503,
      "up": 2504,
      "▁high": 2505,
      "ween": 2506,
      "okwen": 2507,
      "wini": 2508,
      "-ke": 2509,
      "ments": 2510,
      "▁feel": 2511,
      "hh": 2512,
      "▁let": 2513,
      "daba": 2514,
      "-s": 2515,
      "-20": 2516,
      "yo,": 2517,
      "le,": 2518,
      "fazi": 2519,
      "ebenzisa": 2520,
      "-I": 2521,
      "▁proble": 2522,
      "▁kwam": 2523,
      "▁konke": 2524,
      "gcina": 2525,
      "▁cr": 2526,
      "▁ngayo": 2527,
      "ziwa": 2528,
      "elo,": 2529,
      "aki": 2530,
      "phambi": 2531,
      "▁give": 2532,
      "wadi": 2533,
      "▁apho": 2534,
      "zimba": 2535,
      "kam": 2536,
      "▁pres": 2537,
      "▁stud": 2538,
      "▁enye": 2539,
      "iew": 2540,
      "owever,": 2541,
      "▁nie.\n": 2542,
      "ulum": 2543,
      "ject": 2544,
      "uba": 2545,
      "▁being": 2546,
      "alo.\n": 2547,
      "▁wakho": 2548,
      "▁book": 2549,
      "xho": 2550,
      "a\n": 2551,
      "▁kwes": 2552,
      "ving": 2553,
      "inde": 2554,
      "read": 2555,
      "▁dr": 2556,
      "onda": 2557,
      "▁naba": 2558,
      "gg": 2559,
      "erg": 2560,
      "ars": 2561,
      "khaya": 2562,
      "oe": 2563,
      "▁contr": 2564,
      "▁Your": 2565,
      "▁sto": 2566,
      "▁med": 2567,
      "▁Pro": 2568,
      "▁At": 2569,
      "irl": 2570,
      "▁One": 2571,
      "-3": 2572,
      "▁quest": 2573,
      "ix": 2574,
      "gaba": 2575,
      "raph": 2576,
      "khon": 2577,
      "▁spe": 2578,
      "hlab": 2579,
      "▁sur": 2580,
      "outh": 2581,
      "ian": 2582,
      "-m": 2583,
      "▁gu": 2584,
      "▁imali": 2585,
      "y\n": 2586,
      "ream": 2587,
      "▁cal": 2588,
      "tand": 2589,
      "angu": 2590,
      "hayibh": 2591,
      "▁spec": 2592,
      "▁Br": 2593,
      "ifan": 2594,
      "kheth": 2595,
      "umi": 2596,
      "▁\"U": 2597,
      "▁jou": 2598,
      "ict": 2599,
      "Nk": 2600,
      "phila": 2601,
      "▁requ": 2602,
      "▁kukho": 2603,
      "▁ufuna": 2604,
      "-19": 2605,
      "oun": 2606,
      "▁Wa": 2607,
      "come": 2608,
      "on.\n": 2609,
      "▁nezi": 2610,
      "▁som": 2611,
      "▁yethu": 2612,
      "▁list": 2613,
      "band": 2614,
      "▁things": 2615,
      "▁pol": 2616,
      "▁care": 2617,
      "▁yo": 2618,
      "▁last": 2619,
      "tya": 2620,
      "elop": 2621,
      "▁set": 2622,
      "▁trans": 2623,
      "▁kanj": 2624,
      "▁Ba": 2625,
      "▁belie": 2626,
      "▁cour": 2627,
      "▁poss": 2628,
      "ple": 2629,
      "cc": 2630,
      "hu": 2631,
      "▁Ek": 2632,
      "Bhayibh": 2633,
      "phend": 2634,
      "isebenzi": 2635,
      "▁di": 2636,
      "akha": 2637,
      "ase,": 2638,
      "ibu": 2639,
      "yis": 2640,
      "▁you're": 2641,
      "thi.\n": 2642,
      "ano": 2643,
      "▁business": 2644,
      "pend": 2645,
      "▁nes": 2646,
      "pro": 2647,
      "ert": 2648,
      "▁inform": 2649,
      "▁shall": 2650,
      "▁lot": 2651,
      "kumbi": 2652,
      "ka.\n": 2653,
      "▁akukho": 2654,
      "▁abo": 2655,
      "ugh": 2656,
      "wa.\n": 2657,
      "ality": 2658,
      "▁act": 2659,
      "▁da": 2660,
      "▁you.\n": 2661,
      "ileyo.\n": 2662,
      "i\n": 2663,
      "thuba": 2664,
      "▁Uk": 2665,
      "▁kind": 2666,
      "▁problem": 2667,
      "▁though": 2668,
      "ife": 2669,
      "hlo": 2670,
      "▁US": 2671,
      "khawule": 2672,
      "▁month": 2673,
      "ino": 2674,
      "▁able": 2675,
      "▁keep": 2676,
      "ern": 2677,
      "ige": 2678,
      "ather": 2679,
      "unt": 2680,
      "eri": 2681,
      "▁Emva": 2682,
      "ying": 2683,
      "▁14": 2684,
      "ps": 2685,
      "yona": 2686,
      "▁sk": 2687,
      "theni": 2688,
      "▁cho": 2689,
      "enxa": 2690,
      "▁Don't": 2691,
      "▁Ub": 2692,
      "lik": 2693,
      "thini": 2694,
      "▁adv": 2695,
      "▁away": 2696,
      "▁sub": 2697,
      "▁under": 2698,
      "▁between": 2699,
      "▁awa": 2700,
      "▁Njeng": 2701,
      "ket": 2702,
      "▁ban": 2703,
      "▁art": 2704,
      "▁\"S": 2705,
      "okwenza": 2706,
      "▁mod": 2707,
      "▁Sp": 2708,
      "▁few": 2709,
      "▁sol": 2710,
      "▁ele": 2711,
      "▁aman": 2712,
      "webh": 2713,
      "zwi": 2714,
      "▁yakhe": 2715,
      "▁wena": 2716,
      "wang": 2717,
      "▁nama": 2718,
      "▁tru": 2719,
      "▁found": 2720,
      "▁indawo": 2721,
      "▁ezininzi": 2722,
      "▁blo": 2723,
      "mer": 2724,
      "▁hom": 2725,
      "▁never": 2726,
      "▁number": 2727,
      "▁•": 2728,
      "▁isikhathi": 2729,
      "▁eya": 2730,
      "fundi": 2731,
      "▁id": 2732,
      "ug": 2733,
      "elel": 2734,
      "ining": 2735,
      "aut": 2736,
      "eni,": 2737,
      "zana": 2738,
      "ves": 2739,
      "Yesu": 2740,
      "zal": 2741,
      "line": 2742,
      "en,": 2743,
      "▁Lord": 2744,
      "▁Ad": 2745,
      "endlela": 2746,
      "▁cle": 2747,
      "i-": 2748,
      "iny": 2749,
      "▁Isi": 2750,
      "▁With": 2751,
      "ittle": 2752,
      "zathu": 2753,
      "oko,": 2754,
      "▁ema": 2755,
      "▁uJ": 2756,
      "port": 2757,
      "▁here": 2758,
      "▁lokhu": 2759,
      "▁Let": 2760,
      "die": 2761,
      "▁system": 2762,
      "▁ko": 2763,
      "▁vis": 2764,
      "▁ngama": 2765,
      "ies.\n": 2766,
      "▁mone": 2767,
      "enge": 2768,
      "ull": 2769,
      "▁unders": 2770,
      "ave": 2771,
      "▁Ma": 2772,
      "▁land": 2773,
      "▁Ye": 2774,
      "▁sele": 2775,
      "▁fun": 2776,
      "▁produ": 2777,
      "let": 2778,
      "▁nt": 2779,
      "qela": 2780,
      "con": 2781,
      "ako": 2782,
      "▁ngokuba": 2783,
      "▁hulle": 2784,
      "als": 2785,
      "▁Mar": 2786,
      "etyenziswa": 2787,
      "olu": 2788,
      "▁net": 2789,
      "akes": 2790,
      "ishini": 2791,
      "▁From": 2792,
      "▁place": 2793,
      "isana": 2794,
      "▁Xa": 2795,
      "▁pur": 2796,
      "▁amab": 2797,
      "▁kuma": 2798,
      "▁\"Y": 2799,
      "ures": 2800,
      "angal": 2801,
      "▁home": 2802,
      "cept": 2803,
      "iko": 2804,
      "▁Kh": 2805,
      "ution": 2806,
      "ala.\n": 2807,
      "▁nda": 2808,
      "ers,": 2809,
      "▁ak": 2810,
      "hek": 2811,
      "ident": 2812,
      "khetha": 2813,
      "▁Eng": 2814,
      "▁fact": 2815,
      "get": 2816,
      "umana": 2817,
      "▁giv": 2818,
      "▁free": 2819,
      "▁13": 2820,
      "of": 2821,
      "▁aka": 2822,
      "▁Dit": 2823,
      "▁gl": 2824,
      "▁today": 2825,
      "khiqi": 2826,
      "▁inclu": 2827,
      "imbi": 2828,
      "ebenza": 2829,
      "▁produc": 2830,
      "xhobo": 2831,
      "▁develop": 2832,
      "al.\n": 2833,
      "er\n": 2834,
      "ublic": 2835,
      "akhe.\n": 2836,
      "ane.\n": 2837,
      "▁kokuba": 2838,
      "▁geb": 2839,
      "▁examp": 2840,
      "▁three": 2841,
      "▁live": 2842,
      "ently": 2843,
      "▁emp": 2844,
      "▁,": 2845,
      "▁hier": 2846,
      "▁Tr": 2847,
      "▁kaku": 2848,
      "▁kwe-": 2849,
      "tshenz": 2850,
      "akwa": 2851,
      "▁next": 2852,
      "▁sign": 2853,
      "▁ngi": 2854,
      "▁ngoba": 2855,
      "▁ayi": 2856,
      "ente": 2857,
      "▁Na": 2858,
      "!\"\n": 2859,
      "cinci": 2860,
      "ing\n": 2861,
      "▁open": 2862,
      "abantu": 2863,
      "ifuna": 2864,
      "thetho": 2865,
      "▁uhl": 2866,
      "▁contin": 2867,
      "▁wes": 2868,
      "isa.\n": 2869,
      "elekile": 2870,
      "▁kulo": 2871,
      "uni": 2872,
      "ayithi": 2873,
      "onzo": 2874,
      "▁kuy": 2875,
      "ief": 2876,
      "▁tell": 2877,
      "ograph": 2878,
      "khawuleza": 2879,
      "otos": 2880,
      "anani": 2881,
      "ula.\n": 2882,
      "▁wakhe": 2883,
      "▁His": 2884,
      "alu": 2885,
      "▁ze-": 2886,
      "on,": 2887,
      "ela,": 2888,
      "▁thing": 2889,
      "▁ngoko": 2890,
      "zange": 2891,
      "qonda": 2892,
      "▁Kw": 2893,
      "▁begin": 2894,
      "▁chang": 2895,
      "▁bre": 2896,
      "yan": 2897,
      "▁kufanele": 2898,
      "onder": 2899,
      "▁why": 2900,
      "thando": 2901,
      "qha": 2902,
      "▁umuntu": 2903,
      "erk": 2904,
      "itsh": 2905,
      "ati": 2906,
      "urr": 2907,
      "ubani": 2908,
      "▁really": 2909,
      "an,": 2910,
      "▁better": 2911,
      "▁hy": 2912,
      "onyaka": 2913,
      "▁Eur": 2914,
      "▁around": 2915,
      "▁yokuba": 2916,
      "enu": 2917,
      "▁without": 2918,
      "!!": 2919,
      "▁16": 2920,
      "qhubeka": 2921,
      "andl": 2922,
      "▁Amer": 2923,
      "zama": 2924,
      "▁il": 2925,
      "▁put": 2926,
      "omba": 2927,
      "▁kunjalo,": 2928,
      "▁uit": 2929,
      "▁ges": 2930,
      "▁oko": 2931,
      "e\n": 2932,
      "ini,": 2933,
      "sebenzisi": 2934,
      "▁det": 2935,
      "▁sure": 2936,
      "▁ass": 2937,
      "▁ser": 2938,
      "▁Pl": 2939,
      "isayo": 2940,
      "▁apha": 2941,
      "oli": 2942,
      "qhelekileyo": 2943,
      "▁family": 2944,
      "▁process": 2945,
      "▁char": 2946,
      "▁understand": 2947,
      "mag": 2948,
      "▁lead": 2949,
      "cac": 2950,
      "▁kwaba": 2951,
      "ity.\n": 2952,
      "▁oth": 2953,
      "▁show": 2954,
      "▁...": 2955,
      "kileyo": 2956,
      "zam": 2957,
      "ature": 2958,
      "gram": 2959,
      "eleyo": 2960,
      "▁learn": 2961,
      "▁kwab": 2962,
      "▁anga": 2963,
      "isela": 2964,
      "qondo": 2965,
      "▁Sh": 2966,
      "▁zakho": 2967,
      "▁John": 2968,
      "yath": 2969,
      "▁17": 2970,
      "▁daar": 2971,
      "▁che": 2972,
      "▁ukukh": 2973,
      ".'\n": 2974,
      "▁ezinye": 2975,
      "bonakala": 2976,
      "imo": 2977,
      "▁Us": 2978,
      "▁ukul": 2979,
      "fika": 2980,
      "▁lakho": 2981,
      "▁sha": 2982,
      "▁prot": 2983,
      "▁zom": 2984,
      "thu.\n": 2985,
      "iyo": 2986,
      "▁Nge": 2987,
      "▁you,": 2988,
      "imu": 2989,
      "ume": 2990,
      "▁we-": 2991,
      "▁emhlab": 2992,
      "▁sis": 2993,
      "▁vide": 2994,
      "mk": 2995,
      "▁Con": 2996,
      "okuqala": 2997,
      "▁igama": 2998,
      "ron": 2999,
      "ji": 3000,
      "▁Unga": 3001,
      "daweni": 3002,
      "phil": 3003,
      "▁health": 3004,
      "▁ngaphambi": 3005,
      "faka": 3006,
      "jab": 3007,
      "▁iing": 3008,
      "▁kwis": 3009,
      "▁ong": 3010,
      "▁school": 3011,
      "phepha": 3012,
      "joy": 3013,
      "▁baya": 3014,
      "iet": 3015,
      "▁siya": 3016,
      "ider": 3017,
      "▁provid": 3018,
      "thola": 3019,
      "▁Ex": 3020,
      "▁girl": 3021,
      "▁Ung": 3022,
      "▁order": 3023,
      "50": 3024,
      "..\n": 3025,
      "▁0": 3026,
      "ste": 3027,
      "▁Sc": 3028,
      "▁information": 3029,
      "▁Now": 3030,
      "ja": 3031,
      "wa,": 3032,
      "▁inga": 3033,
      "▁them.\n": 3034,
      "umela": 3035,
      "bab": 3036,
      "▁loc": 3037,
      "wel": 3038,
      "▁law": 3039,
      "intsha": 3040,
      "ensi": 3041,
      "▁pay": 3042,
      "▁njengoko": 3043,
      "▁Nangona": 3044,
      "▁ngendlela": 3045,
      "▁ibh": 3046,
      "▁small": 3047,
      "▁water": 3048,
      "udi": 3049,
      "oog": 3050,
      "▁bro": 3051,
      "▁Kung": 3052,
      "asa": 3053,
      "echn": 3054,
      "▁ans": 3055,
      "▁Into": 3056,
      "or.\n": 3057,
      "▁little": 3058,
      "intl": 3059,
      "▁ve": 3060,
      "▁vo": 3061,
      "zini": 3062,
      "zayo": 3063,
      "▁Not": 3064,
      "▁vol": 3065,
      "▁something": 3066,
      "▁got": 3067,
      ":4": 3068,
      "▁enkulu": 3069,
      "hlabathi": 3070,
      "▁lat": 3071,
      "▁tot": 3072,
      "▁kuyo": 3073,
      "ention": 3074,
      "▁war": 3075,
      "▁both": 3076,
      "hiya": 3077,
      "▁company": 3078,
      "inc": 3079,
      "▁kanjani": 3080,
      "▁design": 3081,
      "ristu": 3082,
      "ording": 3083,
      "ret": 3084,
      "isha": 3085,
      "fanelekileyo": 3086,
      "▁food": 3087,
      "▁Or": 3088,
      "▁yem": 3089,
      "▁support": 3090,
      "▁However,": 3091,
      "▁kwama": 3092,
      "ii": 3093,
      "dlala": 3094,
      "khum": 3095,
      "▁talk": 3096,
      "▁mus": 3097,
      "▁bad": 3098,
      "▁too": 3099,
      "edi": 3100,
      "▁aw": 3101,
      "ozi": 3102,
      "owo": 3103,
      "▁ig": 3104,
      "ics": 3105,
      "▁cond": 3106,
      "bonisa": 3107,
      "....\n": 3108,
      "amba": 3109,
      "yinto": 3110,
      "has": 3111,
      "▁gener": 3112,
      "ired": 3113,
      "▁Ngoko": 3114,
      "▁prof": 3115,
      "amu": 3116,
      "qe": 3117,
      "▁obu": 3118,
      "ka,": 3119,
      "▁another": 3120,
      "▁ide": 3121,
      "ele.\n": 3122,
      "▁fl": 3123,
      "▁mean": 3124,
      "▁I've": 3125,
      "sel": 3126,
      "▁ud": 3127,
      "eny": 3128,
      "▁ube": 3129,
      "iba": 3130,
      "ustom": 3131,
      "ried": 3132,
      "▁stand": 3133,
      "▁\"The": 3134,
      "▁ngokwa": 3135,
      "alung": 3136,
      "▁Indlela": 3137,
      "▁babe": 3138,
      "anethi": 3139,
      "▁Sa": 3140,
      "▁ibe": 3141,
      "ative": 3142,
      "ism": 3143,
      "ied": 3144,
      "▁waye": 3145,
      "ital": 3146,
      "▁experi": 3147,
      "▁heart": 3148,
      "▁var": 3149,
      "▁oor": 3150,
      "▁fil": 3151,
      "▁ndlela": 3152,
      "▁Who": 3153,
      "▁ngaba": 3154,
      "▁kuka": 3155,
      "▁mind": 3156,
      "▁ngexesha": 3157,
      "enziwa": 3158,
      "'ve": 3159,
      "▁24": 3160,
      "▁ikh": 3161,
      "aso": 3162,
      "ts,": 3163,
      "▁against": 3164,
      "▁nang": 3165,
      "▁zam": 3166,
      "▁30": 3167,
      "▁pos": 3168,
      "▁ret": 3169,
      "leko": 3170,
      "▁kwezi": 3171,
      "ayeli": 3172,
      "xabiso": 3173,
      "▁def": 3174,
      "ussi": 3175,
      ",000": 3176,
      "▁iminyaka": 3177,
      "▁amandla": 3178,
      "thol": 3179,
      "Ng": 3180,
      "▁Indi": 3181,
      "▁njalo": 3182,
      "ection": 3183,
      "iki": 3184,
      "omo": 3185,
      "▁can't": 3186,
      "ileyo,": 3187,
      "uck": 3188,
      "ices": 3189,
      "▁hard": 3190,
      "▁Here": 3191,
      "▁\"B": 3192,
      "▁kunga": 3193,
      "▁\"M": 3194,
      "enziwe": 3195,
      "▁lar": 3196,
      "▁wase": 3197,
      "are": 3198,
      "ulela": 3199,
      "▁cent": 3200,
      "vers": 3201,
      "▁kakuhle": 3202,
      "▁kwaku": 3203,
      "ail": 3204,
      "gr": 3205,
      "▁Lokhu": 3206,
      "uss": 3207,
      "dom": 3208,
      "themba": 3209,
      "el.\n": 3210,
      "▁uc": 3211,
      "▁izim": 3212,
      "▁nob": 3213,
      "ambo": 3214,
      "▁young": 3215,
      "▁\"K": 3216,
      "]\n": 3217,
      "gether": 3218,
      "▁interest": 3219,
      "▁Kun": 3220,
      "▁intern": 3221,
      "▁*": 3222,
      "▁Uya": 3223,
      "thwa": 3224,
      "▁Why": 3225,
      "ined": 3226,
      "▁webs": 3227,
      "xaki": 3228,
      "▁\"H": 3229,
      "▁doesn't": 3230,
      "▁nk": 3231,
      "vail": 3232,
      "▁meet": 3233,
      "▁ku-": 3234,
      "▁possible": 3235,
      "phel": 3236,
      "▁okun": 3237,
      "ird": 3238,
      "iting": 3239,
      "▁kwakhona": 3240,
      "▁time.\n": 3241,
      "idlalo": 3242,
      "▁rest": 3243,
      "▁hour": 3244,
      "vern": 3245,
      "uke": 3246,
      "▁wo": 3247,
      "▁house": 3248,
      "▁uz": 3249,
      "▁njenge": 3250,
      "▁Americ": 3251,
      "▁commun": 3252,
      "▁Wor": 3253,
      "▁njengoba": 3254,
      "ially": 3255,
      "▁abanye": 3256,
      "ekayo": 3257,
      "ube": 3258,
      "▁conf": 3259,
      "bhal": 3260,
      "▁Ink": 3261,
      "▁enough": 3262,
      "▁ziya": 3263,
      "ision": 3264,
      "ten": 3265,
      "▁El": 3266,
      "par": 3267,
      "▁ook": 3268,
      "▁change": 3269,
      "▁waba": 3270,
      "okwa": 3271,
      "▁beaut": 3272,
      "▁called": 3273,
      "inge": 3274,
      "▁ext": 3275,
      "▁pop": 3276,
      "▁lam": 3277,
      "▁creat": 3278,
      "wo.\n": 3279,
      "▁ngokukhawuleza": 3280,
      "ertain": 3281,
      "kuba": 3282,
      "▁father": 3283,
      "▁izing": 3284,
      "zel": 3285,
      "▁days": 3286,
      "▁power": 3287,
      "▁ngakumbi": 3288,
      "▁Es": 3289,
      "ann": 3290,
      "ly,": 3291,
      "▁Izin": 3292,
      "dlali": 3293,
      "▁please,": 3294,
      "fumane": 3295,
      "anti": 3296,
      "▁ukuhl": 3297,
      "th.\n": 3298,
      "▁UM": 3299,
      "▁unoku": 3300,
      "▁win": 3301,
      "fik": 3302,
      "▁opp": 3303,
      "▁mother": 3304,
      "▁second": 3305,
      "▁Yintoni": 3306,
      "zo.\n": 3307,
      "▁yourself": 3308,
      "▁abe": 3309,
      "▁prom": 3310,
      "▁About": 3311,
      "ised": 3312,
      "▁azi": 3313,
      "oud": 3314,
      "▁uThixo": 3315,
      "▁yaye": 3316,
      "eminyaka": 3317,
      "ganga": 3318,
      "weni.\n": 3319,
      "cono": 3320,
      "▁bakhe": 3321,
      "abanga": 3322,
      "eshe": 3323,
      "▁Thank": 3324,
      "▁owa": 3325,
      "-c": 3326,
      "▁Co": 3327,
      "pec": 3328,
      "▁gam": 3329,
      "▁inf": 3330,
      "ation,": 3331,
      "ware": 3332,
      "usuku": 3333,
      "ually": 3334,
      "▁night": 3335,
      "▁Isra": 3336,
      "▁iink": 3337,
      "▁pass": 3338,
      "qana": 3339,
      "ense": 3340,
      "fic": 3341,
      "▁Wat": 3342,
      "▁kuzo": 3343,
      "ent.\n": 3344,
      "odi": 3345,
      "▁yena": 3346,
      "▁build": 3347,
      "illion": 3348,
      "ged": 3349,
      "dlul": 3350,
      "▁red": 3351,
      "▁China": 3352,
      "▁United": 3353,
      "kus": 3354,
      "▁phambi": 3355,
      "aceb": 3356,
      "▁cap": 3357,
      "▁Afric": 3358,
      "▁ngokuphelele": 3359,
      "▁yini": 3360,
      "xenye": 3361,
      "▁came": 3362,
      "▁prov": 3363,
      "▁conc": 3364,
      "▁ta": 3365,
      "phansi": 3366,
      "una": 3367,
      "▁#": 3368,
      "▁might": 3369,
      "▁uza": 3370,
      "▁After": 3371,
      "▁during": 3372,
      "▁kab": 3373,
      "ice.\n": 3374,
      "ikela": 3375,
      "▁These": 3376,
      "-E": 3377,
      "▁lonke": 3378,
      "▁question": 3379,
      "iseka": 3380,
      "▁human": 3381,
      "▁call": 3382,
      "endawo": 3383,
      "ustr": 3384,
      "▁looking": 3385,
      "▁iy": 3386,
      "atur": 3387,
      "pos": 3388,
      "▁dire": 3389,
      "isho": 3390,
      "ute": 3391,
      "ortun": 3392,
      "phantsi": 3393,
      "▁kuthi": 3394,
      "ering": 3395,
      "roup": 3396,
      "▁test": 3397,
      "ly.\n": 3398,
      "▁partic": 3399,
      "hloko": 3400,
      "▁run": 3401,
      "heid": 3402,
      "▁together": 3403,
      "▁become": 3404,
      "▁country": 3405,
      "▁moet": 3406,
      "▁real": 3407,
      "gi": 3408,
      "▁avail": 3409,
      "▁grow": 3410,
      "▁iza": 3411,
      "▁needs": 3412,
      "▁Ukuze": 3413,
      "▁cor": 3414,
      "▁nak": 3415,
      "ithanda": 3416,
      "▁term": 3417,
      "▁seem": 3418,
      "▁Some": 3419,
      "aka": 3420,
      "▁yab": 3421,
      "▁self": 3422,
      "▁phezu": 3423,
      "cwadi": 3424,
      "Ch": 3425,
      "▁sho": 3426,
      "entl": 3427,
      "▁sam": 3428,
      "enj": 3429,
      "▁plac": 3430,
      "ceb": 3431,
      "▁far": 3432,
      "▁women": 3433,
      "▁sil": 3434,
      "▁base": 3435,
      "▁didn't": 3436,
      "u.\n": 3437,
      "osa": 3438,
      "▁rece": 3439,
      "▁ubun": 3440,
      "balulekile": 3441,
      "uso": 3442,
      "▁zab": 3443,
      "ed\n": 3444,
      "err": 3445,
      "▁elin": 3446,
      "in.\n": 3447,
      "▁bay": 3448,
      "▁suc": 3449,
      "an\n": 3450,
      "▁light": 3451,
      "▁money": 3452,
      "▁Kub": 3453,
      "umbula": 3454,
      "▁deur": 3455,
      "▁eM": 3456,
      "orts": 3457,
      "zali": 3458,
      "▁custom": 3459,
      "ekileyo": 3460,
      "▁onga": 3461,
      "▁opt": 3462,
      "▁21": 3463,
      "akhe,": 3464,
      "za,": 3465,
      "ission": 3466,
      "▁Pe": 3467,
      "▁May": 3468,
      "▁Go": 3469,
      "▁head": 3470,
      "▁dist": 3471,
      "osuku": 3472,
      "▁went": 3473,
      "za.\n": 3474,
      "▁ke,": 3475,
      "fo": 3476,
      "ide.\n": 3477,
      "▁says": 3478,
      "▁done": 3479,
      "▁UK": 3480,
      "▁Of": 3481,
      "ikele": 3482,
      "▁langu": 3483,
      "ex": 3484,
      "dlalo": 3485,
      "iselwa": 3486,
      "yal": 3487,
      "▁ukusuka": 3488,
      "▁hierdie": 3489,
      "▁top": 3490,
      "▁ezahlukene": 3491,
      "▁believe": 3492,
      "▁consider": 3493,
      "iversity": 3494,
      "ondo": 3495,
      "iso.\n": 3496,
      "emi": 3497,
      "ane,": 3498,
      "ebh": 3499,
      "▁point": 3500,
      "▁gro": 3501,
      "hlob": 3502,
      "idd": 3503,
      "-4": 3504,
      "▁kahle": 3505,
      "▁Ukul": 3506,
      "In": 3507,
      "▁bakho": 3508,
      "▁said,": 3509,
      "▁following": 3510,
      "▁Ngo": 3511,
      "▁oy": 3512,
      "weni,": 3513,
      "isa,": 3514,
      "phuma": 3515,
      "tshenziswa": 3516,
      "▁appro": 3517,
      "▁Cl": 3518,
      "▁een": 3519,
      "▁\"D": 3520,
      "▁lesi": 3521,
      "su": 3522,
      "▁yay": 3523,
      "h,": 3524,
      "br": 3525,
      "amandla": 3526,
      "▁yama": 3527,
      "▁phambili": 3528,
      "▁program": 3529,
      "ala,": 3530,
      "▁ekhaya": 3531,
      "▁unt": 3532,
      "▁fre": 3533,
      "▁teach": 3534,
      "▁appe": 3535,
      "▁lika": 3536,
      "▁death": 3537,
      "▁kwakho": 3538,
      "▁cas": 3539,
      "▁sle": 3540,
      "isele": 3541,
      "▁Eku": 3542,
      "ingo": 3543,
      "▁ukuzi": 3544,
      "work": 3545,
      "fundo": 3546,
      "▁city": 3547,
      "▁(2": 3548,
      "ari": 3549,
      "▁stat": 3550,
      "phatha": 3551,
      "▁known": 3552,
      "▁uzi": 3553,
      "uture": 3554,
      "itch": 3555,
      "▁room": 3556,
      "▁me.\n": 3557,
      "ekiso": 3558,
      "▁loo": 3559,
      "inci": 3560,
      "wh": 3561,
      "▁happen": 3562,
      "▁isic": 3563,
      "wela": 3564,
      "▁I'll": 3565,
      "▁Sy": 3566,
      "▁25": 3567,
      "▁cre": 3568,
      "phefum": 3569,
      "phinda": 3570,
      "▁World": 3571,
      "ote": 3572,
      "▁Fun": 3573,
      "▁turn": 3574,
      "beka": 3575,
      "▁treat": 3576,
      "qaku": 3577,
      "tle": 3578,
      "okwenzeka": 3579,
      "ziyo": 3580,
      "zuzu": 3581,
      "▁pa": 3582,
      "-201": 3583,
      "omp": 3584,
      "abe": 3585,
      "▁nokuba": 3586,
      "▁ngalo": 3587,
      ".S": 3588,
      "▁By": 3589,
      "ebe": 3590,
      "zele": 3591,
      "ine.\n": 3592,
      "alule": 3593,
      "thengi": 3594,
      "▁sib": 3595,
      "hlanje": 3596,
      "gal": 3597,
      "▁available": 3598,
      "▁disc": 3599,
      "▁son": 3600,
      "▁Intern": 3601,
      "▁reason": 3602,
      "▁means": 3603,
      "▁South": 3604,
      "▁ngal": 3605,
      "khok": 3606,
      "▁easy": 3607,
      "hlawumbi": 3608,
      "▁entsha": 3609,
      "odu": 3610,
      "▁body": 3611,
      "▁sex": 3612,
      "▁isn't": 3613,
      "▁online": 3614,
      "▁Ang": 3615,
      "doda": 3616,
      "themb": 3617,
      "▁Are": 3618,
      "hlek": 3619,
      "khun": 3620,
      "▁Ngakho": 3621,
      "ept": 3622,
      "▁kwalo": 3623,
      "ment.\n": 3624,
      "▁Ngenxa": 3625,
      "▁Comm": 3626,
      "▁org": 3627,
      "▁Bo": 3628,
      "isiwe": 3629,
      "hlanu": 3630,
      "▁life.\n": 3631,
      "elo.\n": 3632,
      "▁Gr": 3633,
      "ately": 3634,
      "▁bal": 3635,
      "▁os": 3636,
      "hal": 3637,
      "▁Bible": 3638,
      "▁Om": 3639,
      "ekile": 3640,
      "Kristu": 3641,
      "▁Ii": 3642,
      "ando": 3643,
      "....": 3644,
      "hulum": 3645,
      "ifaz": 3646,
      "siza": 3647,
      "indi": 3648,
      "khiqizo": 3649,
      "▁techn": 3650,
      "▁yakho.\n": 3651,
      "▁hear": 3652,
      "▁step": 3653,
      "▁22": 3654,
      "▁waar": 3655,
      "▁maar": 3656,
      "haya": 3657,
      "▁Every": 3658,
      "▁ses": 3659,
      "irit": 3660,
      "like": 3661,
      "▁enc": 3662,
      "▁100": 3663,
      "▁Way": 3664,
      "▁fore": 3665,
      "▁colle": 3666,
      "aw": 3667,
      "qinisekisa": 3668,
      "▁famil": 3669,
      "▁emb": 3670,
      "phumo": 3671,
      "▁Abantu": 3672,
      "▁comes": 3673,
      "otograph": 3674,
      "imb": 3675,
      "ode": 3676,
      "▁kanga": 3677,
      "▁yokuqala": 3678,
      "▁answer": 3679,
      "suku": 3680,
      "ists": 3681,
      "▁temp": 3682,
      "iso,": 3683,
      "▁zethu": 3684,
      "▁umntwana": 3685,
      "▁Kuba": 3686,
      "▁Ndiya": 3687,
      "ession": 3688,
      "▁four": 3689,
      "▁voor": 3690,
      "et.\n": 3691,
      "one.\n": 3692,
      "gcin": 3693,
      "▁big": 3694,
      "▁Then": 3695,
      "▁What's": 3696,
      "eg": 3697,
      "▁awu": 3698,
      "▁hist": 3699,
      "iful": 3700,
      "vam": 3701,
      "phakam": 3702,
      "▁omnye": 3703,
      "less": 3704,
      "▁least": 3705,
      "▁stay": 3706,
      "▁\"L": 3707,
      "▁exc": 3708,
      "▁effect": 3709,
      "▁indi": 3710,
      "agram": 3711,
      "zise": 3712,
      "▁full": 3713,
      "▁baie": 3714,
      "oogle": 3715,
      "izwa": 3716,
      "vumela": 3717,
      "eda": 3718,
      "▁using": 3719,
      "▁kuwe": 3720,
      "▁kubo": 3721,
      "webhus": 3722,
      "▁thank": 3723,
      "qab": 3724,
      "usi": 3725,
      "ner": 3726,
      "▁ukub": 3727,
      "▁until": 3728,
      "isebenzisa": 3729,
      "▁ngaphezulu": 3730,
      "▁Siya": 3731,
      "ento": 3732,
      "▁Eli": 3733,
      "gn": 3734,
      "iling": 3735,
      "▁Int": 3736,
      "▁ukuy": 3737,
      "hlelo": 3738,
      "▁result": 3739,
      "fanayo": 3740,
      "man": 3741,
      "oduc": 3742,
      "▁while": 3743,
      "▁ukwa": 3744,
      "yn": 3745,
      "load": 3746,
      "▁offer": 3747,
      "▁Col": 3748,
      "▁everything": 3749,
      "ula,": 3750,
      "zis": 3751,
      "▁it,": 3752,
      "acebook": 3753,
      "▁cha": 3754,
      "▁pray": 3755,
      "vol": 3756,
      "▁ni": 3757,
      "▁Ngok": 3758,
      "▁meer": 3759,
      "xha": 3760,
      "mi": 3761,
      "▁okung": 3762,
      "wayo": 3763,
      "▁kukuba": 3764,
      "▁Su": 3765,
      "▁Ed": 3766,
      "ister": 3767,
      "▁equ": 3768,
      "ombi": 3769,
      "qwen": 3770,
      "vious": 3771,
      "▁lik": 3772,
      "mkani": 3773,
      "▁uS": 3774,
      "▁ngaphakathi": 3775,
      "▁Home": 3776,
      "▁ngemp": 3777,
      "▁kwindawo": 3778,
      "ibini": 3779,
      "▁alread": 3780,
      "cinga": 3781,
      "▁ukusebenza": 3782,
      "ciph": 3783,
      "▁Par": 3784,
      "▁IN": 3785,
      "oses": 3786,
      "▁fac": 3787,
      "eki": 3788,
      "ede": 3789,
      "-10": 3790,
      "▁public": 3791,
      "cam": 3792,
      "cr": 3793,
      "ights": 3794,
      "ines": 3795,
      "▁incre": 3796,
      "▁ever": 3797,
      "xib": 3798,
      "▁diffic": 3799,
      "-S": 3800,
      "anga.\n": 3801,
      "van": 3802,
      "qanaba": 3803,
      "▁nothing": 3804,
      "▁applic": 3805,
      "je": 3806,
      "▁game": 3807,
      "▁Israel": 3808,
      "▁control": 3809,
      "wangc": 3810,
      "▁seen": 3811,
      "enzo": 3812,
      "▁Comp": 3813,
      "kul": 3814,
      "▁mil": 3815,
      "▁aye": 3816,
      "US": 3817,
      "esent": 3818,
      "▁Our": 3819,
      "The": 3820,
      "ected": 3821,
      "▁zabo": 3822,
      "uts": 3823,
      "weph": 3824,
      "▁koko": 3825,
      "ici": 3826,
      "ased": 3827,
      "▁uNkulunkulu": 3828,
      "▁speak": 3829,
      "▁mas": 3830,
      "▁success": 3831,
      "▁ngokwe": 3832,
      "▁phantsi": 3833,
      "enn": 3834,
      "▁(I": 3835,
      "nandi": 3836,
      "▁sl": 3837,
      "▁\"E": 3838,
      "▁ndiya": 3839,
      "kanani": 3840,
      "ithathu": 3841,
      "▁olun": 3842,
      "▁sou": 3843,
      "▁since": 3844,
      "▁curr": 3845,
      "▁time,": 3846,
      "▁har": 3847,
      "Thix": 3848,
      "qeq": 3849,
      "zelo": 3850,
      "▁ngesikhathi": 3851,
      "▁emhlabeni": 3852,
      "▁God's": 3853,
      "wunt": 3854,
      "▁Cent": 3855,
      "rag": 3856,
      "ziwe": 3857,
      "iqu": 3858,
      "▁ukwazi": 3859,
      "▁King": 3860,
      "▁me,": 3861,
      "osh": 3862,
      "age.\n": 3863,
      "▁having": 3864,
      "▁Akukho": 3865,
      "ump": 3866,
      "val": 3867,
      "gcwele": 3868,
      "▁plan": 3869,
      "▁les": 3870,
      "ency": 3871,
      "▁job": 3872,
      "vakal": 3873,
      "esearch": 3874,
      "hluka": 3875,
      "▁day.\n": 3876,
      "▁ris": 3877,
      "▁endaweni": 3878,
      "ents.\n": 3879,
      "stagram": 3880,
      "▁ngokuthi": 3881,
      "▁future": 3882,
      "▁kang": 3883,
      "▁ngezi": 3884,
      "ashi": 3885,
      "▁woman": 3886,
      "▁sent": 3887,
      "▁ulwazi": 3888,
      "reen": 3889,
      "ruik": 3890,
      "▁return": 3891,
      "ects": 3892,
      "▁zo": 3893,
      "aniso": 3894,
      "▁bese": 3895,
      "▁nezin": 3896,
      "▁Ge": 3897,
      "▁kakhulu,": 3898,
      "▁ste": 3899,
      "-f": 3900,
      "zalwa": 3901,
      "vi": 3902,
      "▁ukufumana": 3903,
      "▁dem": 3904,
      "mp": 3905,
      "ay,": 3906,
      "▁IT": 3907,
      "ence.\n": 3908,
      "▁aff": 3909,
      "ically": 3910,
      "▁Hy": 3911,
      "zantsi": 3912,
      "▁govern": 3913,
      "dib": 3914,
      "ech": 3915,
      "wandle": 3916,
      "▁already": 3917,
      "▁certain": 3918,
      "▁\"O": 3919,
      "5.\n": 3920,
      "▁non": 3921,
      "▁est": 3922,
      "ted": 3923,
      "▁ezinga": 3924,
      "phula": 3925,
      "ton": 3926,
      "▁yas": 3927,
      "aty": 3928,
      "af": 3929,
      "Ph": 3930,
      "ole": 3931,
      "gx": 3932,
      "▁Russi": 3933,
      "bonakal": 3934,
      "▁esin": 3935,
      "▁main": 3936,
      "▁account": 3937,
      "▁That's": 3938,
      "thuthu": 3939,
      "▁less": 3940,
      "ter.\n": 3941,
      "▁Yes,": 3942,
      "▁abantwana": 3943,
      "▁whe": 3944,
      "yl": 3945,
      "▁Kukho": 3946,
      "ocus": 3947,
      "umo": 3948,
      "had": 3949,
      "▁is,": 3950,
      "lungele": 3951,
      "▁Europe": 3952,
      "▁relations": 3953,
      "▁bene": 3954,
      ".)\n": 3955,
      "▁situ": 3956,
      "▁world.\n": 3957,
      "▁buy": 3958,
      "▁kunge": 3959,
      "elwano": 3960,
      "▁Kwi": 3961,
      "▁Pa": 3962,
      "apho": 3963,
      "▁ntoni": 3964,
      "ks": 3965,
      "ams": 3966,
      "▁eat": 3967,
      "icha": 3968,
      "▁Let's": 3969,
      "▁yezi": 3970,
      "▁ngaphezu": 3971,
      "yiphi": 3972,
      "▁const": 3973,
      "amo": 3974,
      "▁dream": 3975,
      "▁artic": 3976,
      "▁abaninzi": 3977,
      "▁necess": 3978,
      "▁among": 3979,
      "▁view": 3980,
      "cedo": 3981,
      "baluleke": 3982,
      "▁enjoy": 3983,
      "ger": 3984,
      "+\n": 3985,
      "▁Ukus": 3986,
      "▁short": 3987,
      "▁mana": 3988,
      "oso": 3989,
      "▁endl": 3990,
      "▁ref": 3991,
      "▁mov": 3992,
      "nyama": 3993,
      "urch": 3994,
      "ies,": 3995,
      "thwe": 3996,
      "xe": 3997,
      "▁allow": 3998,
      "Jehova": 3999,
      "zul": 4000,
      "▁Ezi": 4001,
      "▁wathi": 4002,
      "▁ubomi": 4003,
      "▁king": 4004,
      "part": 4005,
      "gangatho": 4006,
      "chweph": 4007,
      "ikwazi": 4008,
      "inal": 4009,
      "ayiphi": 4010,
      "▁trad": 4011,
      "ema": 4012,
      "ande": 4013,
      "khutha": 4014,
      "▁Ukulele": 4015,
      "vir": 4016,
      "yu": 4017,
      "uro": 4018,
      "usela": 4019,
      "▁23": 4020,
      "guq": 4021,
      "onwab": 4022,
      "▁rele": 4023,
      "▁yabo": 4024,
      "ator": 4025,
      "▁product": 4026,
      "oms": 4027,
      "▁group": 4028,
      "▁\"Th": 4029,
      "esp": 4030,
      "▁bed": 4031,
      "▁ukum": 4032,
      "Th": 4033,
      "uthor": 4034,
      "ihla": 4035,
      "ifund": 4036,
      "not": 4037,
      "▁ezingama": 4038,
      "▁bring": 4039,
      "▁val": 4040,
      "▁given": 4041,
      "igq": 4042,
      "go": 4043,
      "▁Ka": 4044,
      "ids": 4045,
      "tes": 4046,
      "▁Up": 4047,
      "▁data": 4048,
      "▁zing": 4049,
      "▁Yi": 4050,
      "▁rep": 4051,
      "usha": 4052,
      "▁nen": 4053,
      "▁emin": 4054,
      "thint": 4055,
      "webhusayithi": 4056,
      "▁earth": 4057,
      "ali.\n": 4058,
      "▁heav": 4059,
      "▁ukubu": 4060,
      "▁uye": 4061,
      "lungis": 4062,
      "ombe": 4063,
      "ology": 4064,
      "▁lokho": 4065,
      "hizin": 4066,
      "▁yaba": 4067,
      "osp": 4068,
      "▁Sin": 4069,
      "ar.\n": 4070,
      "▁States": 4071,
      "▁lab": 4072,
      "▁bang": 4073,
      "▁50": 4074,
      "▁video": 4075,
      "▁nge-": 4076,
      "▁oper": 4077,
      "▁difficult": 4078,
      "pecially": 4079,
      "▁hot": 4080,
      "▁lase": 4081,
      "uty": 4082,
      "▁First": 4083,
      "▁often": 4084,
      "uda": 4085,
      "▁alm": 4086,
      "▁arr": 4087,
      "ibili": 4088,
      "▁Day": 4089,
      "adi": 4090,
      "bha": 4091,
      "▁199": 4092,
      "▁past": 4093,
      "▁Car": 4094,
      "ance.\n": 4095,
      "iese": 4096,
      ":5": 4097,
      "▁him.\n": 4098,
      "wunti": 4099,
      "▁post": 4100,
      "▁ngokus": 4101,
      "▁imag": 4102,
      "▁wonder": 4103,
      "▁werk": 4104,
      "▁case": 4105,
      "▁ili": 4106,
      "khang": 4107,
      "mage": 4108,
      "▁abang": 4109,
      "yathelo": 4110,
      "bamb": 4111,
      "iti": 4112,
      "zi.\n": 4113,
      "aniswa": 4114,
      "phinde": 4115,
      "emva": 4116,
      "▁imm": 4117,
      "▁mom": 4118,
      "rika": 4119,
      "▁level": 4120,
      "khulule": 4121,
      "▁lim": 4122,
      "fect": 4123,
      "app": 4124,
      "irt": 4125,
      "it.\n": 4126,
      "xal": 4127,
      "▁wethu": 4128,
      "ages": 4129,
      "gam": 4130,
      "▁within": 4131,
      "▁that's": 4132,
      "aland": 4133,
      "imes": 4134,
      "▁minut": 4135,
      "iety": 4136,
      "▁relationship": 4137,
      "▁kukhona": 4138,
      "▁ic": 4139,
      "▁umb": 4140,
      "▁nase": 4141,
      "▁uYehova": 4142,
      "▁direct": 4143,
      "▁music": 4144,
      "▁yet": 4145,
      "aling": 4146,
      "jonga": 4147,
      "▁yinto": 4148,
      "▁years.\n": 4149,
      "khuluma": 4150,
      "▁yez": 4151,
      "▁emplo": 4152,
      "ishe": 4153,
      "▁elect": 4154,
      "▁kwizi": 4155,
      "vak": 4156,
      "at.\n": 4157,
      "irc": 4158,
      "oh": 4159,
      "▁times": 4160,
      "▁walk": 4161,
      "▁impro": 4162,
      "gaqo": 4163,
      "▁typ": 4164,
      "▁hol": 4165,
      "▁cou": 4166,
      "▁Bab": 4167,
      "▁friends": 4168,
      "akanya": 4169,
      "▁ngas": 4170,
      "▁English": 4171,
      "▁hu": 4172,
      "▁kwenzeka": 4173,
      "ibuzo": 4174,
      "oint": 4175,
      "▁Zonke": 4176,
      "▁someone": 4177,
      "▁x": 4178,
      "▁working": 4179,
      "eds": 4180,
      "▁lw": 4181,
      "▁Get": 4182,
      "▁abas": 4183,
      "view": 4184,
      "AN": 4185,
      "▁kanc": 4186,
      "▁ase": 4187,
      "phuc": 4188,
      "ms": 4189,
      "▁them,": 4190,
      "▁uyazi": 4191,
      "Nkosi": 4192,
      "▁provide": 4193,
      "▁Musa": 4194,
      "▁ngeke": 4195,
      "▁eye": 4196,
      "▁stor": 4197,
      "OR": 4198,
      "hizinisi": 4199,
      "▁asked": 4200,
      "▁umn": 4201,
      "▁sakho": 4202,
      "8.\n": 4203,
      "erc": 4204,
      "▁proper": 4205,
      "comm": 4206,
      "anyana": 4207,
      "alela": 4208,
      "ef": 4209,
      ".S.": 4210,
      "thenga": 4211,
      "phath": 4212,
      "▁nabo": 4213,
      "▁emi": 4214,
      "▁akun": 4215,
      "orth": 4216,
      "is.\n": 4217,
      "▁trying": 4218,
      "veral": 4219,
      "pawu": 4220,
      "ber": 4221,
      "▁bona": 4222,
      "kela": 4223,
      "ulelo": 4224,
      "▁omkhulu": 4225,
      "▁swe": 4226,
      "andleni": 4227,
      "akhi": 4228,
      "▁(A": 4229,
      "▁xesha": 4230,
      "eleko": 4231,
      "▁strong": 4232,
      "▁addition": 4233,
      "ata": 4234,
      "▁kusukela": 4235,
      "▁naye": 4236,
      "▁hope": 4237,
      "aken": 4238,
      "row": 4239,
      "rew": 4240,
      "▁beautiful": 4241,
      "iseko": 4242,
      "xhome": 4243,
      "vidiyo": 4244,
      "▁Bl": 4245,
      "▁team": 4246,
      "lala": 4247,
      "▁size": 4248,
      "gest": 4249,
      "▁Ons": 4250,
      "▁koko,": 4251,
      "▁Inga": 4252,
      "ers\n": 4253,
      "phendula": 4254,
      "▁Photos": 4255,
      "▁born": 4256,
      "khe.\n": 4257,
      "hwe": 4258,
      "ives": 4259,
      "ibo": 4260,
      "beni": 4261,
      "gwe": 4262,
      "Un": 4263,
      "kwe": 4264,
      "▁quality": 4265,
      "ites": 4266,
      "▁\"We": 4267,
      "Fr": 4268,
      "▁Kutheni": 4269,
      "eca": 4270,
      "▁kwabo": 4271,
      "▁njengom": 4272,
      "▁focus": 4273,
      "landelayo": 4274,
      "ikelele": 4275,
      "▁imisebenzi": 4276,
      "▁million": 4277,
      "▁amaxesha": 4278,
      "▁eS": 4279,
      "▁Umb": 4280,
      "ations.\n": 4281,
      "ophe": 4282,
      "▁abab": 4283,
      "xhomeke": 4284,
      "▁kuze": 4285,
      "▁kam": 4286,
      "▁social": 4287,
      "org": 4288,
      "embu": 4289,
      "ript": 4290,
      "ifazane": 4291,
      "ived": 4292,
      "▁40": 4293,
      "▁near": 4294,
      "ombo": 4295,
      "▁ukung": 4296,
      "iled": 4297,
      "▁amanzi": 4298,
      "wala": 4299,
      "▁le-": 4300,
      "wo,": 4301,
      "hayi": 4302,
      "▁clear": 4303,
      "funeko": 4304,
      "▁common": 4305,
      "▁the\n": 4306,
      "▁is.\n": 4307,
      "▁occ": 4308,
      "oot": 4309,
      "▁Just": 4310,
      "qiniso": 4311,
      "▁Nam": 4312,
      "gy": 4313,
      "thengisa": 4314,
      "▁ik": 4315,
      "▁ont": 4316,
      "sho": 4317,
      "▁ther": 4318,
      "▁Pre": 4319,
      "▁you'll": 4320,
      "▁zem": 4321,
      "jongo": 4322,
      "phaka": 4323,
      "▁kwakhe": 4324,
      "▁perform": 4325,
      "▁left": 4326,
      "▁memb": 4327,
      "▁ama-": 4328,
      "ubo": 4329,
      "irth": 4330,
      "eme": 4331,
      "▁products": 4332,
      "ength": 4333,
      "▁whole": 4334,
      "bono": 4335,
      "▁Swe": 4336,
      "oon": 4337,
      "ands": 4338,
      "▁eN": 4339,
      "▁special": 4340,
      "▁song": 4341,
      "▁kwiin": 4342,
      "ges": 4343,
      "21": 4344,
      "ciphisa": 4345,
      "▁zase": 4346,
      "▁Look": 4347,
      "▁faith": 4348,
      "▁lakhe": 4349,
      "▁So,": 4350,
      "anada": 4351,
      "thuny": 4352,
      "zuzo": 4353,
      "▁neem": 4354,
      "ift": 4355,
      "erial": 4356,
      "ulung": 4357,
      "▁banga": 4358,
      "▁drink": 4359,
      "ilung": 4360,
      "▁won't": 4361,
      "▁gebruik": 4362,
      "▁abanga": 4363,
      "gs": 4364,
      "▁doing": 4365,
      "▁mess": 4366,
      "▁wil": 4367,
      "odana": 4368,
      "▁lezi": 4369,
      "▁Ing": 4370,
      "olob": 4371,
      "▁wenze": 4372,
      "▁Kuya": 4373,
      "▁uhlobo": 4374,
      "pol": 4375,
      "▁Part": 4376,
      "▁Her": 4377,
      "▁respons": 4378,
      "phupha": 4379,
      "▁rema": 4380,
      "▁Rep": 4381,
      "▁access": 4382,
      "ezi": 4383,
      "▁nayiphi": 4384,
      "▁zama": 4385,
      "ombazana": 4386,
      "▁complet": 4387,
      "▁engama": 4388,
      "▁University": 4389,
      "▁yesi": 4390,
      "-n": 4391,
      "kholelwa": 4392,
      "hlanj": 4393,
      "ential": 4394,
      "vula": 4395,
      "xol": 4396,
      "▁kwisi": 4397,
      "▁visit": 4398,
      "shesha": 4399,
      "ke.\n": 4400,
      "Kh": 4401,
      "lex": 4402,
      "lungileyo": 4403,
      "▁Take": 4404,
      "▁kwel": 4405,
      "yela": 4406,
      "ayela": 4407,
      "wit": 4408,
      "yc": 4409,
      "chas": 4410,
      "▁market": 4411,
      "room": 4412,
      "▁Dis": 4413,
      "▁hous": 4414,
      "bizwa": 4415,
      ".com": 4416,
      "urs": 4417,
      "▁ra": 4418,
      "▁zinto": 4419,
      "▁umzimba": 4420,
      "▁making": 4421,
      "▁dra": 4422,
      "lula": 4423,
      "khath": 4424,
      "▁dest": 4425,
      "▁baka": 4426,
      "jong": 4427,
      "chwepheshe": 4428,
      "▁told": 4429,
      "▁uYesu": 4430,
      "▁activ": 4431,
      "▁Te": 4432,
      "buzo": 4433,
      "▁ezim": 4434,
      "▁depend": 4435,
      "▁App": 4436,
      "gcono": 4437,
      "ambi": 4438,
      "▁eyi": 4439,
      "Bhayibhile": 4440,
      "▁bethu": 4441,
      "u,": 4442,
      "al,": 4443,
      "lim": 4444,
      "▁state": 4445,
      "▁ezis": 4446,
      "avid": 4447,
      "hlak": 4448,
      "10": 4449,
      "-ke,": 4450,
      "▁anything": 4451,
      "xalenye": 4452,
      "conom": 4453,
      "▁continu": 4454,
      "▁sw": 4455,
      "▁lib": 4456,
      "▁kwesi": 4457,
      "▁Can": 4458,
      "ingu": 4459,
      "▁conn": 4460,
      "elwane": 4461,
      "▁yob": 4462,
      "hlungu": 4463,
      "buza": 4464,
      "▁class": 4465,
      "balulekileyo": 4466,
      "▁More": 4467,
      "▁inani": 4468,
      "▁pract": 4469,
      "▁ant": 4470,
      "olwazi": 4471,
      "▁sleep": 4472,
      "ets": 4473,
      "in,": 4474,
      "rip": 4475,
      "asha": 4476,
      "▁fall": 4477,
      "▁wan": 4478,
      "zile": 4479,
      "▁Mus": 4480,
      "thod": 4481,
      "uza": 4482,
      "ched": 4483,
      "▁words": 4484,
      "▁Cha": 4485,
      "zed": 4486,
      "▁uze": 4487,
      "khathi": 4488,
      "yam": 4489,
      "▁well.\n": 4490,
      "▁anim": 4491,
      "vent": 4492,
      "▁service": 4493,
      "▁iintl": 4494,
      "▁Man": 4495,
      "ithand": 4496,
      "▁Qu": 4497,
      "ulwe": 4498,
      "hlale": 4499,
      "uter": 4500,
      "▁wel": 4501,
      "thole": 4502,
      "ele,": 4503,
      "ani,": 4504,
      "ahla": 4505,
      "7.\n": 4506,
      "▁ezimbalwa": 4507,
      "▁cours": 4508,
      "intsh": 4509,
      "zoku": 4510,
      "wenzeka": 4511,
      "▁ezinta": 4512,
      "▁several": 4513,
      "unge": 4514,
      "yana": 4515,
      "▁present": 4516,
      "▁took": 4517,
      "ekela": 4518,
      "▁individ": 4519,
      "▁research": 4520,
      "cuka": 4521,
      "▁nawe": 4522,
      "▁Many": 4523,
      "akwazi": 4524,
      "▁jaar": 4525,
      "olwa": 4526,
      "ya.\n": 4527,
      "!!\n": 4528,
      "iving": 4529,
      "ey": 4530,
      "ombul": 4531,
      "urophu": 4532,
      "▁ec": 4533,
      "▁War": 4534,
      "phuhl": 4535,
      "▁dead": 4536,
      "ES": 4537,
      "▁indust": 4538,
      "▁ngeli": 4539,
      "▁living": 4540,
      "guqu": 4541,
      "▁Where": 4542,
      "alf": 4543,
      "▁God.\n": 4544,
      "▁ngokwen": 4545,
      "-in": 4546,
      "▁sta": 4547,
      "zi,": 4548,
      "uur": 4549,
      "heka": 4550,
      "ba.\n": 4551,
      "▁Well": 4552,
      "akhawunti": 4553,
      "eter": 4554,
      "ude": 4555,
      "▁kn": 4556,
      "▁nie,": 4557,
      "tsho": 4558,
      "▁ander": 4559,
      "▁yim": 4560,
      "▁true": 4561,
      "wend": 4562,
      "▁Germ": 4563,
      "ftware": 4564,
      "yeni": 4565,
      "▁ubudala": 4566,
      "▁face": 4567,
      "▁eziningi": 4568,
      "hy": 4569,
      "▁bat": 4570,
      "k.\n": 4571,
      "4.\n": 4572,
      "rem": 4573,
      "▁utsh": 4574,
      "▁according": 4575,
      "▁personal": 4576,
      "andela": 4577,
      "▁Word": 4578,
      "eli.\n": 4579,
      "▁people.\n": 4580,
      "▁ngubani": 4581,
      "zo,": 4582,
      "▁Acc": 4583,
      "▁site": 4584,
      "▁offic": 4585,
      "▁hoe": 4586,
      "andelo": 4587,
      "▁makes": 4588,
      "▁age": 4589,
      "uze": 4590,
      "▁especially": 4591,
      "9.\n": 4592,
      "bas": 4593,
      "-M": 4594,
      "jor": 4595,
      "▁uq": 4596,
      "jek": 4597,
      "thathu": 4598,
      "▁ngakho": 4599,
      "wed": 4600,
      "uly": 4601,
      "▁nezinye": 4602,
      "▁gaan": 4603,
      "rive": 4604,
      "ion,": 4605,
      "ified": 4606,
      "obe": 4607,
      "▁ukhe": 4608,
      "▁ngosuku": 4609,
      "erus": 4610,
      "thela": 4611,
      "▁nas": 4612,
      "▁Next": 4613,
      "▁website": 4614,
      "▁benef": 4615,
      "qina": 4616,
      "-6": 4617,
      "ison": 4618,
      "▁Good": 4619,
      "cukacha": 4620,
      "▁stop": 4621,
      "▁soos": 4622,
      "riend": 4623,
      "phumela": 4624,
      "indele": 4625,
      "▁story": 4626,
      "▁Ubu": 4627,
      "qaleni": 4628,
      "inike": 4629,
      "▁large": 4630,
      "▁quick": 4631,
      "▁wees": 4632,
      "ustrali": 4633,
      "▁Ple": 4634,
      "▁Will": 4635,
      "▁lwakho": 4636,
      "▁ndawo": 4637,
      "▁year.\n": 4638,
      "▁orig": 4639,
      "hlizi": 4640,
      "▁ann": 4641,
      "gidi": 4642,
      "▁wind": 4643,
      "▁based": 4644,
      "▁(M": 4645,
      "iza": 4646,
      "▁remember": 4647,
      "▁Best": 4648,
      "inn": 4649,
      "▁actu": 4650,
      "▁Love": 4651,
      "dingeka": 4652,
      "itive": 4653,
      "▁blood": 4654,
      "▁ukh": 4655,
      "-5": 4656,
      "▁zezi": 4657,
      "▁whether": 4658,
      "usband": 4659,
      "▁Hol": 4660,
      "mo": 4661,
      "▁beh": 4662,
      "▁countr": 4663,
      "cient": 4664,
      "hlazi": 4665,
      "▁travel": 4666,
      "ught": 4667,
      "▁Ste": 4668,
      "▁\"Ng": 4669,
      "nc": 4670,
      "▁UJ": 4671,
      "▁nod": 4672,
      "thandwa": 4673,
      "▁cost": 4674,
      "▁lokuqala": 4675,
      "qembu": 4676,
      "apan": 4677,
      "funo": 4678,
      "▁lapha": 4679,
      "2.\n": 4680,
      "▁others": 4681,
      "▁side": 4682,
      "yeke": 4683,
      "▁yes,": 4684,
      "▁choose": 4685,
      "ott": 4686,
      "▁cover": 4687,
      "▁Pha": 4688,
      "▁ngokub": 4689,
      "▁perfect": 4690,
      "indo": 4691,
      "▁opportun": 4692,
      "▁fire": 4693,
      "-t": 4694,
      "▁People": 4695,
      "urg": 4696,
      "▁report": 4697,
      "▁Life": 4698,
      "▁kuqala": 4699,
      "jikele": 4700,
      "ecause": 4701,
      "oloko": 4702,
      "-d": 4703,
      "iod": 4704,
      "▁zes": 4705,
      "▁yintoni": 4706,
      "liziyo": 4707,
      "▁taken": 4708,
      "zekelo,": 4709,
      "ided": 4710,
      "▁U.S.": 4711,
      "▁wathi:": 4712,
      "▁Pres": 4713,
      "ifo": 4714,
      "umelelo": 4715,
      "kakhulu": 4716,
      "thing.\n": 4717,
      "▁air": 4718,
      "▁ukusebenzisa": 4719,
      "▁gen": 4720,
      "▁Him": 4721,
      "ani.\n": 4722,
      "dum": 4723,
      "▁everyone": 4724,
      "▁ngob": 4725,
      "▁ngesi": 4726,
      "▁ready": 4727,
      "▁getting": 4728,
      "0.\n": 4729,
      "sim": 4730,
      "▁example,": 4731,
      "kum": 4732,
      "▁II": 4733,
      "omdla": 4734,
      "str": 4735,
      "▁him,": 4736,
      "Yurophu": 4737,
      "lam": 4738,
      "uit": 4739,
      "▁low": 4740,
      "-b": 4741,
      "ashumi": 4742,
      "▁onder": 4743,
      "▁2020": 4744,
      "▁eyes": 4745,
      "onto": 4746,
      "▁ezahlukeneyo": 4747,
      "ie.\n": 4748,
      "hluko": 4749,
      "▁isith": 4750,
      "▁26": 4751,
      "▁popular": 4752,
      "umele": 4753,
      "▁bec": 4754,
      "▁Mat": 4755,
      "iday": 4756,
      "8,": 4757,
      "osed": 4758,
      "▁suff": 4759,
      "▁educ": 4760,
      "▁iind": 4761,
      "▁Stat": 4762,
      "▁six": 4763,
      "▁miss": 4764,
      "anga,": 4765,
      "▁Ver": 4766,
      "m.\n": 4767,
      "hle.\n": 4768,
      "▁leave": 4769,
      "▁upon": 4770,
      "▁mense": 4771,
      "ctor": 4772,
      "▁Ind": 4773,
      "▁Ul": 4774,
      "▁cannot": 4775,
      "ise.\n": 4776,
      "▁mayelana": 4777,
      "▁(S": 4778,
      "ury": 4779,
      "▁lula": 4780,
      "wimi": 4781,
      "onyana": 4782,
      "▁type": 4783,
      "ikeza": 4784,
      "▁lin": 4785,
      "▁Iim": 4786,
      "▁require": 4787,
      "▁Funda": 4788,
      "iselo": 4789,
      "▁sonke": 4790,
      "itsha": 4791,
      "ibala": 4792,
      "khosi": 4793,
      "▁mot": 4794,
      "▁onke": 4795,
      "▁ngathi": 4796,
      "▁Ac": 4797,
      "irayeli": 4798,
      "▁worth": 4799,
      "able.\n": 4800,
      "▁kubalulekile": 4801,
      "▁Pol": 4802,
      "▁students": 4803,
      "▁jud": 4804,
      "cinane": 4805,
      "azi": 4806,
      "biza": 4807,
      "▁front": 4808,
      "zwe.\n": 4809,
      "ences": 4810,
      "ry.\n": 4811,
      "hlangana": 4812,
      "ral": 4813,
      "thathe": 4814,
      "▁York": 4815,
      "emtheth": 4816,
      "eke": 4817,
      "erusal": 4818,
      "▁parents": 4819,
      "▁started": 4820,
      "kwenza": 4821,
      "▁continue": 4822,
      "IN": 4823,
      "as.\n": 4824,
      "▁City": 4825,
      "win": 4826,
      "▁saf": 4827,
      "el,": 4828,
      "3\n": 4829,
      "▁create": 4830,
      "▁wenza": 4831,
      "▁>": 4832,
      "eleli": 4833,
      "9,": 4834,
      "▁akho": 4835,
      "▁Kus": 4836,
      "▁iindlela": 4837,
      "▁including": 4838,
      "tshato": 4839,
      "hlal": 4840,
      "ora": 4841,
      "ered": 4842,
      "ox": 4843,
      "▁Mas": 4844,
      "▁kepha": 4845,
      "zinga": 4846,
      "▁lun": 4847,
      "▁inoku": 4848,
      "-O": 4849,
      "ameli": 4850,
      "▁watch": 4851,
      "▁tyd": 4852,
      "pped": 4853,
      "▁uthi": 4854,
      "▁author": 4855,
      "▁tax": 4856,
      "xelela": 4857,
      "ushu": 4858,
      "▁invol": 4859,
      "ield": 4860,
      "▁issu": 4861,
      "▁close": 4862,
      "▁ways": 4863,
      "▁yeah": 4864,
      "eder": 4865,
      "▁wants": 4866,
      "▁tool": 4867,
      "ikwa": 4868,
      "▁boku": 4869,
      "▁heard": 4870,
      "▁Che": 4871,
      "enda": 4872,
      "▁labo": 4873,
      "▁ngab": 4874,
      "wula": 4875,
      "engqondo": 4876,
      "▁ethile": 4877,
      "▁particular": 4878,
      "▁exist": 4879,
      "▁ach": 4880,
      "201": 4881,
      "though": 4882,
      "ults": 4883,
      "▁Asi": 4884,
      "▁Ewe,": 4885,
      "▁ngale": 4886,
      "ending": 4887,
      "soci": 4888,
      "era": 4889,
      "▁happy": 4890,
      "▁onoku": 4891,
      "ces": 4892,
      "▁God,": 4893,
      "▁sika": 4894,
      "ended": 4895,
      "▁wish": 4896,
      "▁Tod": 4897,
      "▁zika": 4898,
      "▁nangona": 4899,
      "fak": 4900,
      "▁listen": 4901,
      "hlwa": 4902,
      "▁third": 4903,
      "▁baby": 4904,
      "gqibela": 4905,
      "on\n": 4906,
      "▁Uy": 4907,
      "▁rho": 4908,
      "tholakala": 4909,
      "le\n": 4910,
      "▁major": 4911,
      "iding": 4912,
      "▁material": 4913,
      "▁+": 4914,
      "▁uhamb": 4915,
      "▁zakhe": 4916,
      "ishi": 4917,
      "alungu": 4918,
      "bul": 4919,
      "▁jo": 4920,
      "▁engu": 4921,
      "▁div": 4922,
      "▁experience": 4923,
      "▁invest": 4924,
      "utsh": 4925,
      "▁polit": 4926,
      "phele": 4927,
      "▁kon": 4928,
      "▁mna": 4929,
      "▁ith": 4930,
      "▁god": 4931,
      "▁kunokuba": 4932,
      "▁Jehova": 4933,
      "▁phezulu": 4934,
      "pheleni": 4935,
      "gre": 4936,
      "▁ir": 4937,
      "▁card": 4938,
      "en\n": 4939,
      "ally,": 4940,
      "ene.\n": 4941,
      "▁five": 4942,
      ":6": 4943,
      "▁thought": 4944,
      "bonga": 4945,
      "▁ebom": 4946,
      "▁Ear": 4947,
      "kethe": 4948,
      "▁Mr": 4949,
      "troduc": 4950,
      "▁husband": 4951,
      "▁photos": 4952,
      "▁line": 4953,
      "ising": 4954,
      "▁maak": 4955,
      "▁nayo": 4956,
      "jway": 4957,
      "▁natur": 4958,
      "▁Min": 4959,
      "uhla": 4960,
      "ability": 4961,
      "▁individual": 4962,
      "▁us.\n": 4963,
      "▁ezimbini": 4964,
      "er's": 4965,
      "▁knowled": 4966,
      "luhlu": 4967,
      "us,": 4968,
      "right": 4969,
      "▁government": 4970,
      "▁energ": 4971,
      "▁okunga": 4972,
      "▁Sec": 4973,
      "▁cook": 4974,
      "ate.\n": 4975,
      "▁thina": 4976,
      "ana.\n": 4977,
      "▁reach": 4978,
      "laim": 4979,
      "▁dou": 4980,
      "une": 4981,
      "umm": 4982,
      "▁share": 4983,
      "ER": 4984,
      "1.\n": 4985,
      "elebr": 4986,
      "▁nesi": 4987,
      "AT": 4988,
      "phathi": 4989,
      "▁eB": 4990,
      "▁record": 4991,
      "▁Paul": 4992,
      "▁period": 4993,
      "▁wed": 4994,
      "▁search": 4995,
      "▁sid": 4996,
      "elt": 4997,
      "▁Des": 4998,
      "▁mntu": 4999,
      "▁tre": 5000,
      "▁ged": 5001,
      "▁neg": 5002,
      "ter,": 5003,
      "▁Ir": 5004,
      "▁Op": 5005,
      "▁protect": 5006,
      "▁Iin": 5007,
      "▁Dec": 5008,
      "▁\"G": 5009,
      "ithetho": 5010,
      "engiso": 5011,
      "ayile": 5012,
      "▁ur": 5013,
      "▁wrong": 5014,
      "▁ithuba": 5015,
      "▁usuku": 5016,
      "itions": 5017,
      "▁ens": 5018,
      "angaphambili": 5019,
      "▁fav": 5020,
      "ilt": 5021,
      "cwele": 5022,
      "dlule": 5023,
      "▁nog": 5024,
      "▁kude": 5025,
      "7,": 5026,
      "▁ezintathu": 5027,
      "kulung": 5028,
      "▁Most": 5029,
      "▁ukutya": 5030,
      "kele": 5031,
      "▁twe": 5032,
      "fikelela": 5033,
      "▁chall": 5034,
      "▁kal": 5035,
      "▁soon": 5036,
      "eless": 5037,
      "▁Med": 5038,
      "▁kuwo": 5039,
      "▁ngonyaka": 5040,
      "ior": 5041,
      "hlangan": 5042,
      "▁coming": 5043,
      "'m": 5044,
      "iland": 5045,
      "▁Yaye": 5046,
      "raham": 5047,
      "▁bod": 5048,
      "wanyana": 5049,
      "ic.\n": 5050,
      "▁Therefore": 5051,
      "tshintsha": 5052,
      "illed": 5053,
      "enzek": 5054,
      "▁ben": 5055,
      "etimes": 5056,
      "▁now.\n": 5057,
      "▁Gu": 5058,
      "zweni": 5059,
      "▁ngisho": 5060,
      "kosi": 5061,
      "▁Ngaphezu": 5062,
      "▁ess": 5063,
      "selves": 5064,
      "▁1.": 5065,
      "▁hon": 5066,
      "▁umth": 5067,
      "êr": 5068,
      "isiweyo": 5069,
      "zil": 5070,
      "▁IS": 5071,
      "▁2016": 5072,
      "5,": 5073,
      "▁kubu": 5074,
      "▁Father": 5075,
      "▁contain": 5076,
      "▁Sim": 5077,
      "istr": 5078,
      "vamile": 5079,
      "▁Make": 5080,
      "▁kusuka": 5081,
      "▁ngqo": 5082,
      "▁here.\n": 5083,
      "unya": 5084,
      "?\"": 5085,
      "▁yayo": 5086,
      "ibility": 5087,
      "lawula": 5088,
      "▁move": 5089,
      "▁abafundi": 5090,
      "asie": 5091,
      "ent,": 5092,
      "▁Lapho": 5093,
      "▁sun": 5094,
      "▁Child": 5095,
      "isi.\n": 5096,
      "xin": 5097,
      "hlan": 5098,
      "oke": 5099,
      "▁isicelo": 5100,
      "▁28": 5101,
      "▁work.\n": 5102,
      "phumelela": 5103,
      "reet": 5104,
      "▁uba": 5105,
      "▁kwiim": 5106,
      "ruction": 5107,
      "▁Wom": 5108,
      "obile": 5109,
      "▁ints": 5110,
      "▁\"C": 5111,
      "▁forget": 5112,
      "ation\n": 5113,
      "elling": 5114,
      "▁ukufunda": 5115,
      "zekelo": 5116,
      "▁simple": 5117,
      "▁iv": 5118,
      "▁Dr": 5119,
      "en't": 5120,
      "▁method": 5121,
      "e-": 5122,
      "▁Cour": 5123,
      "▁profession": 5124,
      "▁ho": 5125,
      "▁bakh": 5126,
      "▁news": 5127,
      "▁months": 5128,
      "rop": 5129,
      "wanga": 5130,
      "irm": 5131,
      "kumb": 5132,
      "▁uzo": 5133,
      "▁Noma": 5134,
      "opy": 5135,
      "▁sour": 5136,
      "▁Ngaphandle": 5137,
      "thuthuk": 5138,
      "▁phone": 5139,
      "▁seems": 5140,
      "ikol": 5141,
      "▁lama": 5142,
      "▁leg": 5143,
      "ivum": 5144,
      "▁usually": 5145,
      "phawu": 5146,
      "▁amaninzi": 5147,
      "3.\n": 5148,
      "ekwe": 5149,
      "iter": 5150,
      "▁bom": 5151,
      "ared": 5152,
      "▁haar": 5153,
      "▁econom": 5154,
      "▁amount": 5155,
      "▁Ingabe": 5156,
      "▁manje": 5157,
      "▁uN": 5158,
      "khula": 5159,
      "intsho": 5160,
      "▁Kule": 5161,
      "fud": 5162,
      "jonge": 5163,
      "anike": 5164,
      "▁specific": 5165,
      "rect": 5166,
      "futsh": 5167,
      "▁inkampani": 5168,
      "▁Mo": 5169,
      "▁bank": 5170,
      "phile": 5171,
      "yama": 5172,
      "endl": 5173,
      "wenze": 5174,
      ".'": 5175,
      "por": 5176,
      "▁deal": 5177,
      "▁single": 5178,
      "▁Ngi": 5179,
      "roid": 5180,
      "xholo": 5181,
      "▁kunoku": 5182,
      "▁okus": 5183,
      "▁accept": 5184,
      "▁bit": 5185,
      "king": 5186,
      "iseni": 5187,
      "khala": 5188,
      "▁development": 5189,
      "viron": 5190,
      "▁wife": 5191,
      "erste": 5192,
      "thelo": 5193,
      "lished": 5194,
      "▁namhlanje": 5195,
      "Sirayeli": 5196,
      "wand": 5197,
      "▁ter": 5198,
      "hab": 5199,
      "▁hul": 5200,
      "▁indoda": 5201,
      "rain": 5202,
      "▁\"You": 5203,
      "ney": 5204,
      "▁nabantu": 5205,
      "▁Please": 5206,
      "▁press": 5207,
      "bhala": 5208,
      "angoku": 5209,
      "▁necessary": 5210,
      "▁ukuc": 5211,
      "▁\"What": 5212,
      "▁ezinkulu": 5213,
      "1,": 5214,
      "United": 5215,
      "gazi": 5216,
      "▁birth": 5217,
      "▁dise": 5218,
      "▁project": 5219,
      "▁mult": 5220,
      "tl": 5221,
      "ance,": 5222,
      "▁cat": 5223,
      "phazam": 5224,
      "▁marri": 5225,
      "▁there's": 5226,
      "mm": 5227,
      "▁half": 5228,
      "▁Lu": 5229,
      "▁esis": 5230,
      "▁matter": 5231,
      "ither": 5232,
      "ized": 5233,
      "hlophe": 5234,
      "erusalem": 5235,
      "▁Kul": 5236,
      "▁ukuhamba": 5237,
      "▁break": 5238,
      "▁thous": 5239,
      "▁Yini": 5240,
      "▁once": 5241,
      "▁zomb": 5242,
      "▁Ro": 5243,
      "ekhaya": 5244,
      "icela": 5245,
      "▁pati": 5246,
      "fanekiso": 5247,
      "▁ident": 5248,
      "iah": 5249,
      "▁dog": 5250,
      "▁however,": 5251,
      "ilar": 5252,
      "▁truth": 5253,
      "▁repr": 5254,
      "▁kuthetha": 5255,
      "cina": 5256,
      "▁ngo-19": 5257,
      "▁ezili": 5258,
      "▁IM": 5259,
      "▁lem": 5260,
      "onal": 5261,
      "▁uJehova": 5262,
      "-C": 5263,
      "▁above": 5264,
      "khuph": 5265,
      "mas": 5266,
      "enkampani": 5267,
      "▁lost": 5268,
      "▁key": 5269,
      "elweyo": 5270,
      "▁uP": 5271,
      "▁said.\n": 5272,
      "rat": 5273,
      "▁star": 5274,
      "▁clean": 5275,
      "asure": 5276,
      "▁marke": 5277,
      "phak": 5278,
      "▁eling": 5279,
      "gement": 5280,
      "▁ese": 5281,
      "▁umhlaba": 5282,
      "▁Fin": 5283,
      "▁ukunga": 5284,
      "▁iif": 5285,
      "▁inkqubo": 5286,
      "▁ukubona": 5287,
      "reek": 5288,
      "▁East": 5289,
      "▁Ngam": 5290,
      "▁achie": 5291,
      "▁et": 5292,
      "-p": 5293,
      "▁elide": 5294,
      "▁became": 5295,
      "▁iS": 5296,
      "ley": 5297,
      "het": 5298,
      "▁ill": 5299,
      "▁adm": 5300,
      "▁wanted": 5301,
      "▁saw": 5302,
      "▁ep": 5303,
      "▁okwa": 5304,
      "-200": 5305,
      "▁hlobo": 5306,
      "▁ip": 5307,
      "▁naku": 5308,
      "▁hair": 5309,
      "▁kwenza": 5310,
      "▁clo": 5311,
      "▁Sam": 5312,
      "▁las": 5313,
      "engi": 5314,
      "ests": 5315,
      "elelwa": 5316,
      "zuku": 5317,
      "▁compet": 5318,
      "▁ish": 5319,
      "▁sith": 5320,
      "▁refer": 5321,
      "▁Sm": 5322,
      "uwe": 5323,
      "▁hold": 5324,
      "aloo": 5325,
      "▁wazi": 5326,
      "▁uml": 5327,
      "aniz": 5328,
      "▁You're": 5329,
      "wards": 5330,
      "oti": 5331,
      "heke": 5332,
      "uf": 5333,
      "4,": 5334,
      "ali,": 5335,
      "▁State": 5336,
      "ulo.\n": 5337,
      "▁trust": 5338,
      "ibona": 5339,
      "2,": 5340,
      "▁zis": 5341,
      "▁Cr": 5342,
      "▁regard": 5343,
      "itted": 5344,
      "setshenziswa": 5345,
      "pahla": 5346,
      "▁along": 5347,
      "▁article": 5348,
      "▁American": 5349,
      "alulekile": 5350,
      "▁laba": 5351,
      ":10": 5352,
      "ify": 5353,
      "esithi": 5354,
      "▁isit": 5355,
      "imey": 5356,
      "▁Any": 5357,
      "▁Art": 5358,
      "vavan": 5359,
      "khatha": 5360,
      "ifunda": 5361,
      "▁elikhulu": 5362,
      "▁ukuv": 5363,
      "▁maint": 5364,
      "▁weight": 5365,
      "▁mis": 5366,
      "top": 5367,
      "▁sase": 5368,
      "▁early": 5369,
      "▁Because": 5370,
      "▁isis": 5371,
      "ames": 5372,
      "ge.\n": 5373,
      "used": 5374,
      "▁check": 5375,
      "▁esing": 5376,
      "▁Facebook": 5377,
      "▁field": 5378,
      "▁iints": 5379,
      "aly": 5380,
      "▁outs": 5381,
      "▁link": 5382,
      "ument": 5383,
      "irha": 5384,
      "▁members": 5385,
      "lor": 5386,
      "de.\n": 5387,
      "▁kumele": 5388,
      "yaniso": 5389,
      "▁High": 5390,
      "▁lethu": 5391,
      "enes": 5392,
      "▁There's": 5393,
      "▁condition": 5394,
      "▁deli": 5395,
      "▁ukuthola": 5396,
      "▁(C": 5397,
      "thiwe": 5398,
      "▁Eas": 5399,
      "▁language": 5400,
      "▁takes": 5401,
      "lect": 5402,
      "abh": 5403,
      "▁ngokupheleleyo": 5404,
      "icinga": 5405,
      "ateg": 5406,
      "▁ut": 5407,
      "khe,": 5408,
      "ibi": 5409,
      "zw": 5410,
      "▁defin": 5411,
      "funde": 5412,
      "ball": 5413,
      "kom": 5414,
      "▁questions": 5415,
      "ite.\n": 5416,
      "▁sat": 5417,
      "▁required": 5418,
      "won": 5419,
      ":8": 5420,
      "xhumana": 5421,
      "▁ebu": 5422,
      "▁School": 5423,
      "▁Bel": 5424,
      "▁priv": 5425,
      "▁ezintsha": 5426,
      "▁expla": 5427,
      "▁Ya": 5428,
      "rench": 5429,
      "▁okay": 5430,
      "il.\n": 5431,
      "▁doen": 5432,
      "▁spirit": 5433,
      "▁uD": 5434,
      "▁Even": 5435,
      "cover": 5436,
      "▁ngokushesha": 5437,
      "▁See": 5438,
      "▁nzima": 5439,
      "phumelele": 5440,
      "▁recomm": 5441,
      "▁communic": 5442,
      "khomb": 5443,
      "ging": 5444,
      "ise,": 5445,
      "▁Have": 5446,
      "qhuba": 5447,
      "kudala": 5448,
      "▁uthando": 5449,
      "ively": 5450,
      "itor": 5451,
      "▁kusho": 5452,
      "▁ilung": 5453,
      "▁nathi": 5454,
      "▁Som": 5455,
      "▁inde": 5456,
      "engo": 5457,
      "▁we're": 5458,
      "lawulo": 5459,
      "itten": 5460,
      "ev": 5461,
      "ile\n": 5462,
      "!!!\n": 5463,
      "80": 5464,
      "uko": 5465,
      "▁Igama": 5466,
      "▁fight": 5467,
      "êreld": 5468,
      "▁cry": 5469,
      "▁due": 5470,
      "▁(P": 5471,
      "▁course,": 5472,
      "yim": 5473,
      "▁waza": 5474,
      "▁Kwakhona": 5475,
      "▁later": 5476,
      "▁command": 5477,
      "▁pain": 5478,
      "▁uph": 5479,
      "phake": 5480,
      "▁imihla": 5481,
      "▁up.\n": 5482,
      "lin": 5483,
      "owuni": 5484,
      "prof": 5485,
      "thumela": 5486,
      "yes": 5487,
      "▁almost": 5488,
      "▁usebenzisa": 5489,
      "cript": 5490,
      "elekanga": 5491,
      "▁indlu": 5492,
      "▁brother": 5493,
      "▁ikha": 5494,
      "▁decision": 5495,
      "my": 5496,
      "▁sê": 5497,
      "▁example": 5498,
      "▁sound": 5499,
      "wangciso": 5500,
      "▁idea": 5501,
      "zane": 5502,
      "atshirt": 5503,
      "▁weet": 5504,
      "▁Yonke": 5505,
      "ances": 5506,
      "ival": 5507,
      "▁Esi": 5508,
      "▁mor": 5509,
      "igr": 5510,
      "▁het.\n": 5511,
      "▁taking": 5512,
      "▁wokuqala": 5513,
      "abi": 5514,
      "▁longer": 5515,
      "▁amadoda": 5516,
      "▁Park": 5517,
      "▁film": 5518,
      "ancial": 5519,
      "iek": 5520,
      "▁bazi": 5521,
      "des": 5522,
      "tha.\n": 5523,
      "ouch": 5524,
      "ases": 5525,
      "▁Daar": 5526,
      "ament": 5527,
      "▁Google": 5528,
      "tract": 5529,
      "ongeza": 5530,
      "▁kweli": 5531,
      "xibelel": 5532,
      "▁respect": 5533,
      "hleli": 5534,
      "99": 5535,
      "ombolo": 5536,
      "▁simp": 5537,
      "▁amazing": 5538,
      "▁home.\n": 5539,
      "▁phys": 5540,
      "alt": 5541,
      "▁gave": 5542,
      ".,": 5543,
      "-7": 5544,
      "jo": 5545,
      "ulture": 5546,
      "xhomekeke": 5547,
      "▁ten": 5548,
      "intanethi": 5549,
      "▁Per": 5550,
      "▁Abanye": 5551,
      "qinisekileyo": 5552,
      "▁ful": 5553,
      "▁pot": 5554,
      "▁wait": 5555,
      "▁phansi": 5556,
      "▁ezithile": 5557,
      "fort": 5558,
      "▁According": 5559,
      "▁camp": 5560,
      "▁flo": 5561,
      "▁expect": 5562,
      "walas": 5563,
      "▁Cor": 5564,
      "▁area": 5565,
      "khusela": 5566,
      "holide": 5567,
      "▁kuphela.\n": 5568,
      ":9": 5569,
      "▁\"P": 5570,
      "▁hands": 5571,
      "itness": 5572,
      "▁ngamnye": 5573,
      "ounc": 5574,
      "book": 5575,
      "kunceda": 5576,
      "▁actually": 5577,
      "▁hours": 5578,
      "icture": 5579,
      "▁discuss": 5580,
      "▁cut": 5581,
      "antoni": 5582,
      "▁bac": 5583,
      "▁Emp": 5584,
      "▁\"F": 5585,
      "▁hand,": 5586,
      "isis": 5587,
      "▁siza": 5588,
      "ON": 5589,
      "alisa": 5590,
      "▁quite": 5591,
      "ekwa": 5592,
      "gress": 5593,
      "▁Sing": 5594,
      "ilities": 5595,
      "▁Stu": 5596,
      "??": 5597,
      "funi": 5598,
      "AS": 5599,
      "▁mach": 5600,
      "▁daugh": 5601,
      "▁hhayi": 5602,
      "▁Work": 5603,
      "▁forward": 5604,
      "one,": 5605,
      "▁please": 5606,
      "dleni": 5607,
      "kl": 5608,
      "angaphandle": 5609,
      "▁this,": 5610,
      "ikazi": 5611,
      "▁Jehovah": 5612,
      "▁David": 5613,
      "hlangano": 5614,
      "pho.\n": 5615,
      "▁nobu": 5616,
      "▁ums": 5617,
      "inining": 5618,
      "▁Need": 5619,
      "▁works": 5620,
      "omu": 5621,
      "jabul": 5622,
      "post": 5623,
      "phik": 5624,
      "▁circ": 5625,
      "alm": 5626,
      "▁that,": 5627,
      "vert": 5628,
      "fundisa": 5629,
      "▁isid": 5630,
      "▁local": 5631,
      "▁sem": 5632,
      "▁Hl": 5633,
      "ensive": 5634,
      "▁aya": 5635,
      "▁send": 5636,
      "▁appear": 5637,
      "-\n": 5638,
      "▁sas": 5639,
      "▁day,": 5640,
      "▁baba": 5641,
      "▁Photograph": 5642,
      "ID": 5643,
      "▁position": 5644,
      "▁ngezin": 5645,
      "▁leyo": 5646,
      "wulo": 5647,
      "▁contact": 5648,
      "▁lowo": 5649,
      "▁Great": 5650,
      "▁production": 5651,
      "ogn": 5652,
      "▁sla": 5653,
      "urity": 5654,
      "onk": 5655,
      "▁Ha": 5656,
      "▁tw": 5657,
      "▁kubantu": 5658,
      "▁ingaba": 5659,
      "eling": 5660,
      "ones": 5661,
      "▁detail": 5662,
      "▁various": 5663,
      "us.\n": 5664,
      "osi,": 5665,
      "▁services": 5666,
      "ORD": 5667,
      "▁yi-": 5668,
      "▁del": 5669,
      "alif": 5670,
      "gqibeleni": 5671,
      "bhali": 5672,
      "▁\"It": 5673,
      "ilimu": 5674,
      "▁ones": 5675,
      "▁history": 5676,
      "'.\n": 5677,
      "ander": 5678,
      "dinga": 5679,
      "▁action": 5680,
      "▁mhlawumbi": 5681,
      "▁musa": 5682,
      "keni": 5683,
      "▁Andi": 5684,
      "ded": 5685,
      ":7": 5686,
      "ani\n": 5687,
      "▁endi": 5688,
      "▁Sol": 5689,
      "IS": 5690,
      "▁it?\n": 5691,
      "▁Bu": 5692,
      "culo": 5693,
      "▁ngaphambili": 5694,
      "hala": 5695,
      "▁lwen": 5696,
      "eko,": 5697,
      "▁employe": 5698,
      "▁surpr": 5699,
      "nyan": 5700,
      "▁wama": 5701,
      "ED": 5702,
      "ountain": 5703,
      "ba,": 5704,
      "edwa": 5705,
      "▁uthe": 5706,
      "▁clos": 5707,
      "velo": 5708,
      "▁UN": 5709,
      "▁zaba": 5710,
      "▁Rom": 5711,
      "ape": 5712,
      "▁aut": 5713,
      "ence,": 5714,
      "ination": 5715,
      "bonelela": 5716,
      "3,": 5717,
      "▁umfazi": 5718,
      "▁today.\n": 5719,
      "ished": 5720,
      "▁iph": 5721,
      "ions.\n": 5722,
      "▁natural": 5723,
      "hulumente": 5724,
      "ti": 5725,
      "entle": 5726,
      "ulation": 5727,
      "ara": 5728,
      "▁babo": 5729,
      "pping": 5730,
      "▁siy": 5731,
      "▁Rem": 5732,
      "▁estab": 5733,
      "onwa": 5734,
      "'s\n": 5735,
      "▁nou": 5736,
      "hloni": 5737,
      "pheka": 5738,
      "▁kwez": 5739,
      "fumaneka": 5740,
      "▁himself": 5741,
      "▁Iing": 5742,
      "▁foot": 5743,
      "hlanga": 5744,
      "▁Bas": 5745,
      "oooo": 5746,
      "▁Sun": 5747,
      "▁ngokun": 5748,
      "-Is": 5749,
      "tshi": 5750,
      "stit": 5751,
      "▁town": 5752,
      "▁yami": 5753,
      "▁ngokunga": 5754,
      "ini\n": 5755,
      "▁fish": 5756,
      "enty": 5757,
      "▁Enye": 5758,
      "▁yakho,": 5759,
      "▁pub": 5760,
      "2\n": 5761,
      "ize": 5762,
      "▁wabo": 5763,
      "▁kutheni": 5764,
      "inq": 5765,
      "▁mad": 5766,
      "▁uB": 5767,
      "▁Njengoko": 5768,
      "▁27": 5769,
      "▁color": 5770,
      "1\n": 5771,
      "▁Kufuneka": 5772,
      "po": 5773,
      "zelwa": 5774,
      "▁Okokuqala": 5775,
      "▁se-": 5776,
      "▁alle": 5777,
      "▁iint": 5778,
      "play": 5779,
      "▁uv": 5780,
      "▁course": 5781,
      "▁ngiya": 5782,
      "gypt": 5783,
      "war": 5784,
      "iver": 5785,
      "▁kwalokho,": 5786,
      "▁National": 5787,
      "▁singa": 5788,
      "▁ezimbili": 5789,
      "▁-\n": 5790,
      "idence": 5791,
      "▁amagama": 5792,
      "▁ngez": 5793,
      "ide,": 5794,
      "▁port": 5795,
      "▁elim": 5796,
      "elik": 5797,
      "▁nganye": 5798,
      "ene,": 5799,
      "qok": 5800,
      "▁toe": 5801,
      "▁media": 5802,
      "bum": 5803,
      "5\n": 5804,
      "▁uJesu": 5805,
      "wenkwe": 5806,
      "▁jikelele": 5807,
      "▁cause": 5808,
      "iddle": 5809,
      "▁yen": 5810,
      "▁kunzima": 5811,
      "▁kuyinto": 5812,
      "▁Photo": 5813,
      "-18": 5814,
      "yk": 5815,
      "ondolo": 5816,
      "▁European": 5817,
      "anayo": 5818,
      "▁lokuba": 5819,
      "qeqes": 5820,
      "crib": 5821,
      "ya,": 5822,
      "▁amas": 5823,
      "▁LORD": 5824,
      "▁liya": 5825,
      "ina.\n": 5826,
      "▁Ngubani": 5827,
      "-up": 5828,
      "▁abaningi": 5829,
      "▁Njengoba": 5830,
      "▁umoya": 5831,
      "▁way.\n": 5832,
      "▁iM": 5833,
      "▁UA": 5834,
      "▁Tha": 5835,
      "▁kwen": 5836,
      "▁function": 5837,
      "▁pregn": 5838,
      "▁Book": 5839,
      "hem": 5840,
      "▁Und": 5841,
      "▁West": 5842,
      "▁izink": 5843,
      "anger": 5844,
      "thaka": 5845,
      "lus": 5846,
      "▁Read": 5847,
      "xelo": 5848,
      "▁kweminyaka": 5849,
      "zenza": 5850,
      "webhu": 5851,
      "kr": 5852,
      "elane": 5853,
      "▁amazwe": 5854,
      "▁allows": 5855,
      "▁'N": 5856,
      "▁mak": 5857,
      "▁norm": 5858,
      "ises": 5859,
      "▁comple": 5860,
      "▁Down": 5861,
      "thers": 5862,
      "zalwana": 5863,
      "▁all,": 5864,
      "chan": 5865,
      "ring": 5866,
      "▁President": 5867,
      "▁kungenzeka": 5868,
      "▁Fe": 5869,
      "▁compani": 5870,
      "▁prepa": 5871,
      "khanya": 5872,
      "antse": 5873,
      "▁forg": 5874,
      "-In": 5875,
      "is,": 5876,
      "ida": 5877,
      "▁(N": 5878,
      "dlelwane": 5879,
      "Thixo.\n": 5880,
      "▁pap": 5881,
      "▁Free": 5882,
      "▁environ": 5883,
      "▁address": 5884,
      "▁black": 5885,
      "g.\n": 5886,
      "▁becom": 5887,
      "▁rul": 5888,
      "in\n": 5889,
      "jekthi": 5890,
      "rought": 5891,
      "▁groot": 5892,
      "30": 5893,
      "▁=": 5894,
      "son": 5895,
      "waka": 5896,
      "anced": 5897,
      "emthethweni": 5898,
      "▁omunye": 5899,
      "empilo": 5900,
      "▁ungum": 5901,
      "▁kulula": 5902,
      "▁Mhlawumbi": 5903,
      "▁Dep": 5904,
      "▁event": 5905,
      "ow.\n": 5906,
      "eland": 5907,
      "▁enem": 5908,
      "▁fast": 5909,
      "chaza": 5910,
      "▁Jy": 5911,
      "by": 5912,
      "onakala": 5913,
      "▁kwayo": 5914,
      "elani": 5915,
      "▁baye": 5916,
      "▁desi": 5917,
      "▁unc": 5918,
      "no": 5919,
      "▁inj": 5920,
      "▁conv": 5921,
      "aring": 5922,
      "▁ukuthatha": 5923,
      "ona,": 5924,
      "onde": 5925,
      "ice,": 5926,
      "fakwa": 5927,
      "▁Inc": 5928,
      "▁save": 5929,
      "▁terms": 5930,
      "acy": 5931,
      "▁knowledge": 5932,
      "▁word.\n": 5933,
      "▁easily": 5934,
      "▁vi": 5935,
      "zayo.\n": 5936,
      "▁sty": 5937,
      "▁else": 5938,
      "endulo": 5939,
      "8\n": 5940,
      "elika": 5941,
      "▁yakhe.\n": 5942,
      "okwe": 5943,
      "ruct": 5944,
      "▁Keep": 5945,
      "▁bless": 5946,
      "▁iip": 5947,
      "ongameli": 5948,
      "▁amb": 5949,
      "▁network": 5950,
      "▁kunokwenzeka": 5951,
      "lahlek": 5952,
      "▁beku": 5953,
      "▁boy": 5954,
      "▁peace": 5955,
      "▁celebr": 5956,
      "▁eg": 5957,
      "▁way,": 5958,
      "▁ngayo.\n": 5959,
      "tshat": 5960,
      "▁kill": 5961,
      "qalisa": 5962,
      "otela": 5963,
      "ukwazi": 5964,
      "▁avo": 5965,
      "univ": 5966,
      "▁useben": 5967,
      "▁While": 5968,
      "▁elifan": 5969,
      "▁kwezin": 5970,
      ".5": 5971,
      "▁Brit": 5972,
      "eso": 5973,
      "▁Nda": 5974,
      "▁esib": 5975,
      "xic": 5976,
      "▁risk": 5977,
      "itle": 5978,
      "▁dig": 5979,
      "▁Unoku": 5980,
      "quka": 5981,
      "9\n": 5982,
      "▁Gl": 5983,
      "rayeli": 5984,
      "alezo": 5985,
      "isile": 5986,
      "▁eliphezulu": 5987,
      "unj": 5988,
      "uzi": 5989,
      "khululekile": 5990,
      "zimb": 5991,
      "col": 5992,
      "▁nal": 5993,
      "▁kuwe.\n": 5994,
      "▁nabanye": 5995,
      "▁wêreld": 5996,
      "khono": 5997,
      "▁Ngiya": 5998,
      "kholwa": 5999,
      "▁Play": 6000,
      "khany": 6001,
      "▁probab": 6002,
      "▁ngemuva": 6003,
      ".1": 6004,
      "ininingwane": 6005,
      "obal": 6006,
      "▁ukususela": 6007,
      "ifumana": 6008,
      "▁lwes": 6009,
      "-ye": 6010,
      "▁2017": 6011,
      "▁cishe": 6012,
      "▁seku": 6013,
      "urther": 6014,
      "▁Australi": 6015,
      "▁out.\n": 6016,
      "▁French": 6017,
      "inika": 6018,
      "▁efanelekileyo": 6019,
      "-l": 6020,
      "▁isimo": 6021,
      "gen": 6022,
      "zelela": 6023,
      "khiwo": 6024,
      "▁TV": 6025,
      "▁isig": 6026,
      "yisa": 6027,
      "landela": 6028,
      "▁ikakhulu": 6029,
      "▁determ": 6030,
      "▁kungaba": 6031,
      "▁[...": 6032,
      "▁yokwenza": 6033,
      "▁Egypt": 6034,
      "▁nay": 6035,
      "inese": 6036,
      "▁price": 6037,
      "cent": 6038,
      "▁began": 6039,
      "▁sakhe": 6040,
      "oty": 6041,
      "vavanyo": 6042,
      "▁histor": 6043,
      "ace.\n": 6044,
      "for": 6045,
      "thaba": 6046,
      "rict": 6047,
      "▁plant": 6048,
      "▁Black": 6049,
      "pendulo": 6050,
      "zon": 6051,
      "▁goes": 6052,
      "▁wasn't": 6053,
      "▁asi": 6054,
      "'d": 6055,
      "▁valu": 6056,
      "iswa.\n": 6057,
      "▁years,": 6058,
      "▁dark": 6059,
      "engu": 6060,
      "▁zas": 6061,
      "▁Isa": 6062,
      "▁signific": 6063,
      "▁role": 6064,
      "ening": 6065,
      "raid": 6066,
      "qwalas": 6067,
      "▁value": 6068,
      "▁Mad": 6069,
      "▁types": 6070,
      "▁attention": 6071,
      "finy": 6072,
      "▁enhle": 6073,
      "▁uth": 6074,
      "vume": 6075,
      "khuthaza": 6076,
      "▁uY": 6077,
      "▁gesê": 6078,
      "▁table": 6079,
      "▁bar": 6080,
      "isekelo": 6081,
      "▁Japan": 6082,
      "▁ine": 6083,
      ".+\n": 6084,
      "6.\n": 6085,
      "ombululo": 6086,
      "▁similar": 6087,
      "bantu": 6088,
      "▁(R": 6089,
      "60": 6090,
      "elanga": 6091,
      "▁lob": 6092,
      "yawo": 6093,
      "ored": 6094,
      "▁Hier": 6095,
      "osha": 6096,
      "▁Konke": 6097,
      "iteit": 6098,
      "▁relig": 6099,
      "bs": 6100,
      "khonza": 6101,
      "▁ukugcina": 6102,
      "khathal": 6103,
      "▁aren't": 6104,
      "OS": 6105,
      "▁pra": 6106,
      "▁gew": 6107,
      "▁Res": 6108,
      "p.\n": 6109,
      "onak": 6110,
      "khwa": 6111,
      "ana,": 6112,
      "▁iN": 6113,
      "esifazane": 6114,
      "rek": 6115,
      ":11": 6116,
      "hliziyo": 6117,
      "▁Maar": 6118,
      "▁zob": 6119,
      "atshini": 6120,
      "khethekileyo": 6121,
      "▁Aw": 6122,
      "▁therefore": 6123,
      "▁ngabantu": 6124,
      "▁express": 6125,
      "▁29": 6126,
      "-B": 6127,
      "▁(E": 6128,
      "ever": 6129,
      "fully": 6130,
      "▁eerste": 6131,
      "ural": 6132,
      "pi": 6133,
      "thengisi": 6134,
      "▁abs": 6135,
      "▁umdlalo": 6136,
      "hlas": 6137,
      "▁entire": 6138,
      "emor": 6139,
      "▁sikhathi": 6140,
      "eeee": 6141,
      "▁sugg": 6142,
      "▁beng": 6143,
      "▁ezifana": 6144,
      "▁Ezinye": 6145,
      "gin": 6146,
      "▁church": 6147,
      "isebenza": 6148,
      "veki": 6149,
      "olobha": 6150,
      "▁rhoqo": 6151,
      "ele\n": 6152,
      "▁photograph": 6153,
      "▁nazo": 6154,
      "▁standard": 6155,
      "▁soul": 6156,
      "▁kangang": 6157,
      "elene": 6158,
      "▁pie": 6159,
      "▁House": 6160,
      "rom": 6161,
      "ithi": 6162,
      "▁Reg": 6163,
      "igqibo": 6164,
      "▁of\n": 6165,
      "▁Ig": 6166,
      "qale": 6167,
      "▁angama": 6168,
      "▁esifan": 6169,
      "okisi": 6170,
      ":15": 6171,
      "▁brand": 6172,
      "vuma": 6173,
      "itable": 6174,
      "▁tour": 6175,
      "▁Bar": 6176,
      "shisa": 6177,
      "▁Yenza": 6178,
      "chitha": 6179,
      "▁Kum": 6180,
      "▁version": 6181,
      "▁Bay": 6182,
      "▁Off": 6183,
      "▁kubonakala": 6184,
      "hambelana": 6185,
      "▁disa": 6186,
      "ad.\n": 6187,
      "▁sek": 6188,
      "▁written": 6189,
      "▁Blo": 6190,
      "-15": 6191,
      "▁doc": 6192,
      "iven": 6193,
      "▁ngoM": 6194,
      "▁sibe": 6195,
      "tesy": 6196,
      "▁seek": 6197,
      "-to": 6198,
      "▁sokuba": 6199,
      "▁kuna": 6200,
      "▁bur": 6201,
      "▁Serv": 6202,
      "▁yayi": 6203,
      "▁dru": 6204,
      "▁iintlobo": 6205,
      "▁elinye": 6206,
      "▁abasebenzisi": 6207,
      "▁Afrika": 6208,
      "elelwe": 6209,
      "khulu.\n": 6210,
      "▁provided": 6211,
      "gamsh": 6212,
      "▁challeng": 6213,
      "▁njenga": 6214,
      "▁(a": 6215,
      "▁iku": 6216,
      "▁brought": 6217,
      "ity,": 6218,
      "vele": 6219,
      "or,": 6220,
      "eko.\n": 6221,
      "▁nature": 6222,
      "▁provides": 6223,
      "▁Sept": 6224,
      "etr": 6225,
      "▁khona.\n": 6226,
      "hlali": 6227,
      "▁pret": 6228,
      "ique": 6229,
      "les.\n": 6230,
      "0%": 6231,
      "know": 6232,
      "▁iimveliso": 6233,
      "▁(L": 6234,
      "▁Web": 6235,
      "enaku": 6236,
      "khoyo": 6237,
      "▁Internet": 6238,
      "▁anyone": 6239,
      "▁particip": 6240,
      "▁nokuthi": 6241,
      "enkonzo": 6242,
      "▁advant": 6243,
      "▁eyona": 6244,
      "▁Har": 6245,
      "▁Kungani": 6246,
      "4\n": 6247,
      "▁(3": 6248,
      "jalo.\n": 6249,
      "▁lives": 6250,
      "etyenziselwa": 6251,
      "▁hayi": 6252,
      "ayensi": 6253,
      "▁Last": 6254,
      "▁picture": 6255,
      "imate": 6256,
      "▁Manje": 6257,
      "walo": 6258,
      "▁Ant": 6259,
      "ushushu": 6260,
      "▁wakho.\n": 6261,
      "futshane": 6262,
      "▁study": 6263,
      "enced": 6264,
      "hlamb": 6265,
      "▁Know": 6266,
      "▁Nokho,": 6267,
      "▁kwezinye": 6268,
      "dlo": 6269,
      "▁internet": 6270,
      "andakanya": 6271,
      "▁fear": 6272,
      "-r": 6273,
      "elayo.\n": 6274,
      "▁Spirit": 6275,
      "ming": 6276,
      "▁emot": 6277,
      "▁pat": 6278,
      "Thixo,": 6279,
      "▁nanga": 6280,
      "lungiselela": 6281,
      "▁strength": 6282,
      "▁sell": 6283,
      "sy": 6284,
      "▁dep": 6285,
      "▁terr": 6286,
      "▁ndiy": 6287,
      "▁akhe": 6288,
      "▁receive": 6289,
      "▁this.\n": 6290,
      "ishumi": 6291,
      "we\n": 6292,
      "▁Like": 6293,
      "▁zinga": 6294,
      "▁ekus": 6295,
      "▁image": 6296,
      "thern": 6297,
      "▁wad": 6298,
      "lement": 6299,
      "▁efanayo": 6300,
      "▁Kwaku": 6301,
      "▁eP": 6302,
      "EN": 6303,
      "▁Air": 6304,
      "▁und": 6305,
      "▁they're": 6306,
      "▁nor": 6307,
      "▁created": 6308,
      "▁saying": 6309,
      "▁seven": 6310,
      "▁tele": 6311,
      "Bhayibheli": 6312,
      "eni\n": 6313,
      "omla": 6314,
      "▁perm": 6315,
      "xhe": 6316,
      "▁host": 6317,
      "▁Fam": 6318,
      "ebru": 6319,
      "wing": 6320,
      "hlanganisa": 6321,
      "ock": 6322,
      "▁ame": 6323,
      "▁evela": 6324,
      "▁ukuhlala": 6325,
      "pha.\n": 6326,
      "pheleleyo": 6327,
      "ary.\n": 6328,
      "ides": 6329,
      "▁Europ": 6330,
      "▁Well,": 6331,
      "cebiso": 6332,
      "▁·": 6333,
      "bonak": 6334,
      "▁plat": 6335,
      "alandeli": 6336,
      "xeko": 6337,
      "▁financial": 6338,
      "▁(b": 6339,
      "▁meaning": 6340,
      "▁minutes": 6341,
      "▁children.\n": 6342,
      "amuhla": 6343,
      "▁ago": 6344,
      "oduction": 6345,
      "ami": 6346,
      "um.\n": 6347,
      "orge": 6348,
      "▁dag": 6349,
      "▁lay": 6350,
      "▁kwakun": 6351,
      "datha": 6352,
      "phucula": 6353,
      "▁zakho.\n": 6354,
      "AR": 6355,
      "▁software": 6356,
      "▁ngempela": 6357,
      "▁bathi": 6358,
      "▁claim": 6359,
      "▁kangakanani": 6360,
      "uct": 6361,
      "▁akazange": 6362,
      "anto": 6363,
      "ye.\n": 6364,
      "hlango": 6365,
      "ters": 6366,
      "▁Russian": 6367,
      "▁maintain": 6368,
      "▁ingqal": 6369,
      "▁(s": 6370,
      "zona": 6371,
      "▁cam": 6372,
      "▁North": 6373,
      "▁Ze": 6374,
      "simende": 6375,
      "ij": 6376,
      "▁'I": 6377,
      "__": 6378,
      "▁Janu": 6379,
      "▁cell": 6380,
      "▁subject": 6381,
      "▁charac": 6382,
      "▁cli": 6383,
      "▁itself": 6384,
      "ikolo": 6385,
      "▁mag": 6386,
      "lue": 6387,
      "▁yalo": 6388,
      "▁?\n": 6389,
      "▁31": 6390,
      "▁countries": 6391,
      "▁eC": 6392,
      "▁gra": 6393,
      "▁Introduc": 6394,
      "thum": 6395,
      "inkqubo": 6396,
      "wari": 6397,
      "6,": 6398,
      "▁probably": 6399,
      "▁wash": 6400,
      "▁uhlelo": 6401,
      "hambisa": 6402,
      "univesithi": 6403,
      "ina,": 6404,
      "▁Therefore,": 6405,
      "▁exact": 6406,
      "ryf": 6407,
      "▁imidlalo": 6408,
      "▁(J": 6409,
      "▁Wena": 6410,
      "ai": 6411,
      "▁Char": 6412,
      "▁industry": 6413,
      "▁I'd": 6414,
      "onisa": 6415,
      "▁Met": 6416,
      "Google": 6417,
      "ad,": 6418,
      "obi": 6419,
      "▁emseben": 6420,
      "ica": 6421,
      "▁impilo": 6422,
      "▁afraid": 6423,
      "gekho": 6424,
      "▁pick": 6425,
      "▁Mal": 6426,
      "▁current": 6427,
      "▁Imp": 6428,
      "▁ethi": 6429,
      "▁died": 6430,
      "▁uhlala": 6431,
      "enkqubo": 6432,
      "▁married": 6433,
      "kw": 6434,
      "▁knows": 6435,
      "▁Children": 6436,
      "edom": 6437,
      "▁yenza": 6438,
      "▁consum": 6439,
      "amin": 6440,
      "pose": 6441,
      "-year": 6442,
      "lig": 6443,
      "▁Christian": 6444,
      "pap": 6445,
      "▁spend": 6446,
      "las": 6447,
      "▁lig": 6448,
      "▁kwiminyaka": 6449,
      "▁loved": 6450,
      "▁content": 6451,
      "▁Oko": 6452,
      "▁write": 6453,
      "▁again.\n": 6454,
      "**": 6455,
      "ayisi": 6456,
      "▁luka": 6457,
      "EL": 6458,
      "▁Yes": 6459,
      "qonde": 6460,
      "▁wem": 6461,
      "omoya": 6462,
      "▁what's": 6463,
      "▁International": 6464,
      "sue": 6465,
      "eleka": 6466,
      "luit": 6467,
      "▁manuf": 6468,
      "▁insp": 6469,
      "gqiba": 6470,
      "▁building": 6471,
      "undred": 6472,
      "erd": 6473,
      "fazwe": 6474,
      "▁iye": 6475,
      "▁fund": 6476,
      "▁Chinese": 6477,
      "▁yang": 6478,
      "▁you've": 6479,
      "ifanekiso": 6480,
      "ster": 6481,
      "▁attack": 6482,
      "phume": 6483,
      "▁ezo": 6484,
      "gcine": 6485,
      "▁izith": 6486,
      "▁Olu": 6487,
      "▁ise": 6488,
      "▁@": 6489,
      "▁wal": 6490,
      "▁application": 6491,
      "▁kwiindawo": 6492,
      "▁bantu": 6493,
      "▁000": 6494,
      "▁girls": 6495,
      "▁Ins": 6496,
      "▁opportunity": 6497,
      "icil": 6498,
      "▁ukudla": 6499,
      "ko.\n": 6500,
      "▁ow": 6501,
      "▁away.\n": 6502,
      "ilo.\n": 6503,
      "▁safe": 6504,
      "▁Away": 6505,
      "ero": 6506,
      "▁198": 6507,
      "▁Kingdom": 6508,
      "kulungwane": 6509,
      "oko.\n": 6510,
      "uzo": 6511,
      "anje,": 6512,
      "▁kuza": 6513,
      "ane\n": 6514,
      "hlukahlukene": 6515,
      "▁too.\n": 6516,
      "▁drive": 6517,
      "▁beginning": 6518,
      "▁wall": 6519,
      "en's": 6520,
      "▁recogn": 6521,
      "unzima": 6522,
      "ketho": 6523,
      "ekelwe": 6524,
      "▁ngaphansi": 6525,
      "▁izixhobo": 6526,
      "▁unyaka": 6527,
      "▁nan": 6528,
      "▁avoid": 6529,
      "aleni": 6530,
      "OT": 6531,
      "uments": 6532,
      "▁ukuqonda": 6533,
      "ant.\n": 6534,
      "▁ndiza": 6535,
      "el\n": 6536,
      "▁games": 6537,
      "keka": 6538,
      "▁problems": 6539,
      "utions": 6540,
      "▁family.\n": 6541,
      "▁Ag": 6542,
      "▁Buy": 6543,
      "▁univers": 6544,
      "▁ensure": 6545,
      "▁ekuqaleni": 6546,
      "▁Africa": 6547,
      "▁cred": 6548,
      "▁esikol": 6549,
      "▁temper": 6550,
      "uce": 6551,
      "▁kuz": 6552,
      "▁couple": 6553,
      "re.\n": 6554,
      "▁(G": 6555,
      "▁approach": 6556,
      "▁32": 6557,
      "ighl": 6558,
      "▁[...]\n": 6559,
      "▁apply": 6560,
      "ires": 6561,
      "-h": 6562,
      "ifum": 6563,
      "▁say,": 6564,
      "olunye": 6565,
      "▁concern": 6566,
      "▁jour": 6567,
      "▁iindawo": 6568,
      "▁likely": 6569,
      "khumbula": 6570,
      "ure.\n": 6571,
      "-P": 6572,
      "ental": 6573,
      "▁Today": 6574,
      "▁Ib": 6575,
      "▁sens": 6576,
      "kap": 6577,
      "▁noM": 6578,
      "▁eyodwa": 6579,
      "▁complete": 6580,
      "▁Il": 6581,
      "thob": 6582,
      "ela\n": 6583,
      "▁users": 6584,
      "▁lwam": 6585,
      "▁nantoni": 6586,
      "wangoku": 6587,
      "xolo": 6588,
      "▁isib": 6589,
      "▁people,": 6590,
      "▁ebus": 6591,
      "▁Kwe": 6592,
      "▁ngokubanzi": 6593,
      "gqith": 6594,
      "You": 6595,
      "▁elung": 6596,
      "th,": 6597,
      "ional": 6598,
      "▁elula": 6599,
      "▁organiz": 6600,
      "aur": 6601,
      "▁Apr": 6602,
      "asing": 6603,
      "phos": 6604,
      "▁Ngoba": 6605,
      "angi": 6606,
      "diya": 6607,
      "ithetha": 6608,
      "▁ukuthetha": 6609,
      "▁Izinto": 6610,
      "▁band": 6611,
      "ingatha": 6612,
      "okwazi": 6613,
      "ke,": 6614,
      "▁ezweni": 6615,
      "BA": 6616,
      "icelo": 6617,
      "▁volg": 6618,
      "▁belang": 6619,
      ":12": 6620,
      "▁include": 6621,
      "▁phi": 6622,
      "▁correct": 6623,
      "ated.\n": 6624,
      "akhiwo": 6625,
      "▁changes": 6626,
      "▁amakha": 6627,
      "ots": 6628,
      "▁namuhla": 6629,
      "ziphatha": 6630,
      "▁ebomini": 6631,
      "s:": 6632,
      "▁197": 6633,
      "▁ndin": 6634,
      "▁results": 6635,
      "▁favor": 6636,
      "▁knew": 6637,
      "▁sisi": 6638,
      "▁transl": 6639,
      "elelana": 6640,
      "▁increase": 6641,
      "velisa": 6642,
      "▁item": 6643,
      "▁white": 6644,
      "▁leli": 6645,
      "▁Year": 6646,
      "▁Wonke": 6647,
      "▁Indawo": 6648,
      "▁siz": 6649,
      "▁held": 6650,
      "▁unako": 6651,
      "ove": 6652,
      "▁Vir": 6653,
      "▁du": 6654,
      "▁Hel": 6655,
      "kodwa": 6656,
      "▁List": 6657,
      "▁nding": 6658,
      "okuthi": 6659,
      "ala\n": 6660,
      "▁abafazi": 6661,
      "khuseleko": 6662,
      "▁kwethu": 6663,
      "▁lub": 6664,
      "loy": 6665,
      "▁los": 6666,
      "▁ukuku": 6667,
      "tj": 6668,
      "▁touch": 6669,
      "▁Ay": 6670,
      "▁now,": 6671,
      "gqirha": 6672,
      "lang": 6673,
      "▁kuv": 6674,
      "▁nemi": 6675,
      "ighb": 6676,
      "▁uL": 6677,
      "aste": 6678,
      "xim": 6679,
      "▁1,": 6680,
      "▁needed": 6681,
      "oseph": 6682,
      "▁acr": 6683,
      "kalo": 6684,
      "hora": 6685,
      "▁kaNkulunkulu": 6686,
      "▁liye": 6687,
      "▁We're": 6688,
      "them": 6689,
      "more": 6690,
      "neer": 6691,
      "orrow": 6692,
      "▁er": 6693,
      "▁Sat": 6694,
      "ills": 6695,
      "▁international": 6696,
      "khumba": 6697,
      "▁elke": 6698,
      "▁neeng": 6699,
      "▁solution": 6700,
      "▁Nov": 6701,
      "rit": 6702,
      "▁regular": 6703,
      "edl": 6704,
      "▁Lat": 6705,
      "astic": 6706,
      "hold": 6707,
      "▁download": 6708,
      "ie,": 6709,
      "▁omtsha": 6710,
      "khohl": 6711,
      "buyis": 6712,
      "▁one.\n": 6713,
      "ikelo": 6714,
      "▁izinga": 6715,
      "▁abam": 6716,
      "▁dan": 6717,
      "▁mist": 6718,
      "▁kanti": 6719,
      "elweni": 6720,
      "▁fact,": 6721,
      "▁\"In": 6722,
      "▁comfort": 6723,
      "▁bub": 6724,
      "umk": 6725,
      "▁Bre": 6726,
      "▁page": 6727,
      "oluntu": 6728,
      "▁kwabantu": 6729,
      "▁kuM": 6730,
      ":17": 6731,
      "▁teen": 6732,
      "▁uA": 6733,
      "ithu": 6734,
      "ils": 6735,
      "▁doub": 6736,
      "▁I-A": 6737,
      "▁ukuthenga": 6738,
      "uq": 6739,
      "t,": 6740,
      "xazul": 6741,
      "hub": 6742,
      "hambe": 6743,
      "▁fig": 6744,
      "woord": 6745,
      "okwakha": 6746,
      "▁polic": 6747,
      "khomp": 6748,
      "▁Church": 6749,
      "▁viol": 6750,
      "▁Red": 6751,
      "▁Dating": 6752,
      "▁influ": 6753,
      "den": 6754,
      "▁ezint": 6755,
      "▁agre": 6756,
      "cer": 6757,
      "alungelo": 6758,
      "▁destro": 6759,
      "PS": 6760,
      "cazelo": 6761,
      "▁kune": 6762,
      "xaso": 6763,
      "▁ufumane": 6764,
      "cience": 6765,
      "▁amazwi": 6766,
      "▁pow": 6767,
      "▁Wathi": 6768,
      "ies\n": 6769,
      "▁Other": 6770,
      "atic": 6771,
      "▁photo": 6772,
      "▁oo": 6773,
      "▁Hot": 6774,
      "ngena": 6775,
      "▁Canada": 6776,
      "▁engen": 6777,
      "ohane": 6778,
      "-Af": 6779,
      "▁nee": 6780,
      "yalelo": 6781,
      "▁Act": 6782,
      "aving": 6783,
      "▁kwihlabathi": 6784,
      "▁Health": 6785,
      "▁ngobu": 6786,
      "x.\n": 6787,
      "zwana": 6788,
      "-30": 6789,
      "▁ekufuneka": 6790,
      "▁Ser": 6791,
      "lah": 6792,
      "vang": 6793,
      ":13": 6794,
      "▁wakhe.\n": 6795,
      "▁Val": 6796,
      "cali": 6797,
      "athi": 6798,
      "▁twee": 6799,
      "khuba": 6800,
      "▁nyaka": 6801,
      "nyango": 6802,
      "phefumlo": 6803,
      "anish": 6804,
      "▁<": 6805,
      "iswano": 6806,
      "ndeni": 6807,
      "▁abazali": 6808,
      "yakeni": 6809,
      ":14": 6810,
      "▁Wind": 6811,
      "▁goal": 6812,
      "▁sig": 6813,
      "▁ukukhanya": 6814,
      "▁Ak": 6815,
      "▁izikhathi": 6816,
      "arning": 6817,
      "ywa": 6818,
      "▁sik": 6819,
      "▁mid": 6820,
      "▁behind": 6821,
      "atures": 6822,
      "as,": 6823,
      "▁Colle": 6824,
      "hood": 6825,
      "▁Ukonge": 6826,
      "▁lose": 6827,
      "▁ling": 6828,
      "elwa.\n": 6829,
      "-Israyeli": 6830,
      "▁ukuphila": 6831,
      "ungakanani": 6832,
      "ver.\n": 6833,
      "Ngq": 6834,
      "▁days.\n": 6835,
      "ugust": 6836,
      "▁myself": 6837,
      "▁60": 6838,
      "▁ezining": 6839,
      "▁Pers": 6840,
      "pheli": 6841,
      "▁Ngakho-ke,": 6842,
      "io": 6843,
      "lungisa": 6844,
      "Xh": 6845,
      "▁kuhlala": 6846,
      "ili.\n": 6847,
      "▁ethu": 6848,
      "qham": 6849,
      "ikhathini": 6850,
      "antsi.\n": 6851,
      "▁Try": 6852,
      "▁party": 6853,
      "enani": 6854,
      "▁gold": 6855,
      "▁weeks": 6856,
      "umn": 6857,
      "ities.\n": 6858,
      "xoxo": 6859,
      "▁Law": 6860,
      ":16": 6861,
      "▁Lond": 6862,
      "iam": 6863,
      "▁imibuzo": 6864,
      "-8": 6865,
      "khiq": 6866,
      "qhubeke": 6867,
      "iselwe": 6868,
      "burg": 6869,
      "erem": 6870,
      "▁review": 6871,
      "▁i-A": 6872,
      "age,": 6873,
      "▁hum": 6874,
      "▁inte": 6875,
      "hlola": 6876,
      "▁modern": 6877,
      "uswa": 6878,
      "▁enter": 6879,
      "▁built": 6880,
      "▁umthetho": 6881,
      "▁studi": 6882,
      "▁ago\n": 6883,
      "celo": 6884,
      "▁bek": 6885,
      "ive.\n": 6886,
      "▁kwexesha": 6887,
      "▁case,": 6888,
      "enzelwe": 6889,
      "▁Jew": 6890,
      "▁ground": 6891,
      "▁eside": 6892,
      "Bh": 6893,
      "▁deep": 6894,
      "▁nalo": 6895,
      "etyh": 6896,
      "▁Rec": 6897,
      "▁35": 6898,
      "thew": 6899,
      "▁nez": 6900,
      "▁user": 6901,
      "▁ekubeni": 6902,
      "▁whom": 6903,
      "▁elithi": 6904,
      "▁mani": 6905,
      "▁Id": 6906,
      "▁Imi": 6907,
      "▁ekh": 6908,
      "thula": 6909,
      "uses": 6910,
      "ured": 6911,
      "▁repl": 6912,
      "▁professional": 6913,
      "▁national": 6914,
      "▁Tra": 6915,
      "▁UYesu": 6916,
      "va.\n": 6917,
      "wendwe": 6918,
      "▁ngomhla": 6919,
      "emand": 6920,
      "hle,": 6921,
      "hou": 6922,
      "▁mention": 6923,
      "▁energy": 6924,
      "▁ngokusebenzisa": 6925,
      "▁imeko": 6926,
      "eken": 6927,
      "▁decided": 6928,
      "▁ngabe": 6929,
      "ness.\n": 6930,
      "▁nini": 6931,
      "▁Sweatshirt": 6932,
      "-12": 6933,
      "▁namhlanj": 6934,
      "khiwa": 6935,
      "itting": 6936,
      "▁2.": 6937,
      "-e": 6938,
      "▁pla": 6939,
      "sequ": 6940,
      "▁kancane": 6941,
      "ements": 6942,
      "▁select": 6943,
      "▁yobu": 6944,
      "aan": 6945,
      "ts\n": 6946,
      "▁train": 6947,
      "pter": 6948,
      "▁water.\n": 6949,
      "hlin": 6950,
      "▁situation": 6951,
      "▁Cho": 6952,
      "ishwa": 6953,
      "▁daughter": 6954,
      "▁represent": 6955,
      "▁considered": 6956,
      "▁kids": 6957,
      "▁kid": 6958,
      "▁Introducing": 6959,
      "▁model": 6960,
      "▁weer": 6961,
      "▁Zama": 6962,
      "▁hop": 6963,
      "wood": 6964,
      "▁significant": 6965,
      "▁kaM": 6966,
      "▁wid": 6967,
      "▁Only": 6968,
      "qabane": 6969,
      "▁mill": 6970,
      "ungelo": 6971,
      "▁beha": 6972,
      "▁hundred": 6973,
      "▁reali": 6974,
      "vis": 6975,
      "▁Ixesha": 6976,
      "▁mouth": 6977,
      "▁Use": 6978,
      "▁year,": 6979,
      "▁track": 6980,
      ":20": 6981,
      "agn": 6982,
      "ze.\n": 6983,
      "▁amakhulu": 6984,
      "▁difference": 6985,
      "▁mobile": 6986,
      "sc": 6987,
      "dla.\n": 6988,
      "▁nendlela": 6989,
      "▁Image": 6990,
      "phol": 6991,
      "cub": 6992,
      "jani": 6993,
      "▁goed": 6994,
      "lahle": 6995,
      "▁eth": 6996,
      "▁Imag": 6997,
      "▁uthole": 6998,
      "ches": 6999,
      "lasi": 7000,
      "▁ndawon": 7001,
      "▁member": 7002,
      "▁Two": 7003,
      "was": 7004,
      "▁ozi": 7005,
      "▁encou": 7006,
      "▁deliver": 7007,
      "▁nuwe": 7008,
      "al\n": 7009,
      "ince": 7010,
      "▁Ngom": 7011,
      "gan": 7012,
      "cipl": 7013,
      "A.\n": 7014,
      "xulum": 7015,
      "xaxhe": 7016,
      "uff": 7017,
      "▁Each": 7018,
      "chapha": 7019,
      "▁wen": 7020,
      "▁wakh": 7021,
      "xhen": 7022,
      "pect": 7023,
      "▁Zi": 7024,
      "▁eziyi": 7025,
      "▁companies": 7026,
      "bamba": 7027,
      "-D": 7028,
      "▁Son": 7029,
      "qhagamsh": 7030,
      "▁Joomla": 7031,
      "ante": 7032,
      "▁yee": 7033,
      "▁yona": 7034,
      "umbe": 7035,
      "▁ebusuku": 7036,
      "▁Since": 7037,
      "yani": 7038,
      "▁Bus": 7039,
      "▁Ngemva": 7040,
      "▁ela": 7041,
      "▁Yena": 7042,
      "cul": 7043,
      "hhhh": 7044,
      "▁extrem": 7045,
      "ibut": 7046,
      "▁attract": 7047,
      "▁African": 7048,
      "bandakanya": 7049,
      "▁ebalulekileyo": 7050,
      "quke": 7051,
      "▁variety": 7052,
      "▁life,": 7053,
      "lag": 7054,
      "AL": 7055,
      "▁Holy": 7056,
      "▁lis": 7057,
      "dibanisa": 7058,
      "-9": 7059,
      "qiniseka": 7060,
      "▁vac": 7061,
      "▁ukuqala": 7062,
      "khonk": 7063,
      "za\n": 7064,
      "▁associ": 7065,
      "ested": 7066,
      "▁Island": 7067,
      "▁Over": 7068,
      "eli,": 7069,
      "▁prevent": 7070,
      "ukum": 7071,
      "▁\"Wh": 7072,
      "▁ngokwenene": 7073,
      "▁Hoe": 7074,
      "▁date": 7075,
      "▁End": 7076,
      "angaphakathi": 7077,
      "▁ukudlala": 7078,
      "▁dating": 7079,
      "▁Mna": 7080,
      "okus": 7081,
      "andelayo": 7082,
      "vakalelo": 7083,
      "▁gives": 7084,
      "pho,": 7085,
      "▁aze": 7086,
      "▁kob": 7087,
      "▁Bambi": 7088,
      "▁(i": 7089,
      "▁wayeng": 7090,
      "▁imizuzu": 7091,
      "▁UD": 7092,
      "khokh": 7093,
      "▁respond": 7094,
      "▁2021": 7095,
      "▁cos": 7096,
      "▁une": 7097,
      "▁let's": 7098,
      "▁ingqalelo": 7099,
      "▁oil": 7100,
      "?'\n": 7101,
      "hetha": 7102,
      "▁Here's": 7103,
      "et,": 7104,
      "▁abadala": 7105,
      "▁that.\n": 7106,
      "qos": 7107,
      "her": 7108,
      "akam": 7109,
      "aa": 7110,
      "▁hou": 7111,
      "put": 7112,
      "▁warm": 7113,
      "▁Cont": 7114,
      "ie\n": 7115,
      "▁isizathu": 7116,
      "mail": 7117,
      "▁flow": 7118,
      "▁UThixo": 7119,
      "▁hosp": 7120,
      "▁lakho.\n": 7121,
      "kal": 7122,
      "▁ngokwan": 7123,
      "phone": 7124,
      "▁(B": 7125,
      "▁official": 7126,
      "▁mina": 7127,
      "ummer": 7128,
      "▁zibe": 7129,
      "▁words,": 7130,
      "▁community": 7131,
      "de,": 7132,
      "▁het,": 7133,
      "-T": 7134,
      "ely.\n": 7135,
      "ery": 7136,
      "▁animal": 7137,
      "▁kunjalo": 7138,
      "linganis": 7139,
      "▁sense": 7140,
      "u\n": 7141,
      "ivumelwano": 7142,
      "▁vict": 7143,
      "▁indic": 7144,
      "▁Net": 7145,
      "▁season": 7146,
      "▁vro": 7147,
      "ibonelo,": 7148,
      "▁Mos": 7149,
      "▁Cas": 7150,
      "ecut": 7151,
      "kundla": 7152,
      "▁nale": 7153,
      "zeni": 7154,
      "▁he's": 7155,
      "▁Count": 7156,
      "▁bem": 7157,
      "tyd": 7158,
      "▁verb": 7159,
      "ota": 7160,
      "▁mi": 7161,
      "▁Sal": 7162,
      "▁character": 7163,
      "ekom": 7164,
      "▁president": 7165,
      "elwan": 7166,
      "▁wang": 7167,
      "▁iintsuku": 7168,
      "ungqina": 7169,
      "▁sab": 7170,
      "ought": 7171,
      "▁choice": 7172,
      "▁medic": 7173,
      "▁physical": 7174,
      "zeki": 7175,
      "visi": 7176,
      "▁udinga": 7177,
      "▁neighb": 7178,
      "▁yezin": 7179,
      "head": 7180,
      "erve": 7181,
      "▁yokuhlala": 7182,
      "▁across": 7183,
      "▁happened": 7184,
      "itshi": 7185,
      "▁improve": 7186,
      "wali": 7187,
      ":18": 7188,
      "ine,": 7189,
      "▁iP": 7190,
      "back": 7191,
      "andla.\n": 7192,
      "▁serious": 7193,
      "▁platform": 7194,
      "▁impact": 7195,
      "▁playing": 7196,
      "▁mn": 7197,
      "▁ezine": 7198,
      "▁gain": 7199,
      "OV": 7200,
      "▁tri": 7201,
      "▁lic": 7202,
      "ices.\n": 7203,
      "▁Umsebenzi": 7204,
      "aliforn": 7205,
      "...\"\n": 7206,
      "▁Christmas": 7207,
      "hlakani": 7208,
      "▁Mon": 7209,
      "▁Bank": 7210,
      "▁Nges": 7211,
      "est.\n": 7212,
      "▁Hulle": 7213,
      "▁sometimes": 7214,
      "khule": 7215,
      "▁deb": 7216,
      "bhe": 7217,
      "▁feeling": 7218,
      "okun": 7219,
      "▁ngemihla": 7220,
      "akwenzeka": 7221,
      "elisa": 7222,
      "▁morning": 7223,
      "ortunately": 7224,
      "tig": 7225,
      "uz": 7226,
      "wesi": 7227,
      "ye,": 7228,
      "▁gel": 7229,
      "lwanyana": 7230,
      "▁Mary": 7231,
      "▁bath": 7232,
      "khangela": 7233,
      "erde": 7234,
      "▁(D": 7235,
      "-100": 7236,
      "gcwal": 7237,
      "▁loss": 7238,
      "▁Although": 7239,
      "▁interested": 7240,
      "▁others.\n": 7241,
      "hlobo.\n": 7242,
      "ate,": 7243,
      "▁I-S": 7244,
      "▁text": 7245,
      "▁incwadi": 7246,
      "▁sokuqala": 7247,
      "onom": 7248,
      "ubi": 7249,
      "fanelekile": 7250,
      "▁poor": 7251,
      "ondi": 7252,
      "▁received": 7253,
      "ukumkani": 7254,
      "empela": 7255,
      "▁njengo": 7256,
      "fanayo.\n": 7257,
      "zingane": 7258,
      "▁prophe": 7259,
      "▁March": 7260,
      "▁chance": 7261,
      "yeka": 7262,
      "eous": 7263,
      "▁attemp": 7264,
      "▁umama": 7265,
      "▁$1": 7266,
      "anam": 7267,
      "bikho": 7268,
      "▁Kwim": 7269,
      "▁wood": 7270,
      "▁wami": 7271,
      "anise": 7272,
      "nam": 7273,
      "▁okufanele": 7274,
      "▁Okokuqala,": 7275,
      "ancing": 7276,
      "▁certainly": 7277,
      "vil": 7278,
      "▁ngemva": 7279,
      "▁Ewe": 7280,
      "▁cold": 7281,
      "hlela": 7282,
      "phakeme": 7283,
      "▁aang": 7284,
      "IT": 7285,
      "phelo": 7286,
      "▁kuye,": 7287,
      "▁lobu": 7288,
      "▁completely": 7289,
      "wad": 7290,
      "▁legal": 7291,
      "▁ability": 7292,
      "▁neng": 7293,
      "ship": 7294,
      "▁kwinqanaba": 7295,
      "▁medical": 7296,
      "iyure": 7297,
      "▁Trans": 7298,
      "▁Bro": 7299,
      "oken": 7300,
      "zekile": 7301,
      "▁msebenzi": 7302,
      "▁Khumbula": 7303,
      "tho.\n": 7304,
      "▁Cons": 7305,
      "qong": 7306,
      "khundla": 7307,
      "▁Kepha": 7308,
      "▁stra": 7309,
      "▁source": 7310,
      "▁idatha": 7311,
      "▁tradition": 7312,
      "▁answ": 7313,
      "▁ukud": 7314,
      "AD": 7315,
      "▁okum": 7316,
      "▁previous": 7317,
      "iwe": 7318,
      "esenti": 7319,
      "▁Bet": 7320,
      "isayo.\n": 7321,
      "-R": 7322,
      "▁Kunga": 7323,
      "AM": 7324,
      "wa\n": 7325,
      "▁kumb": 7326,
      "▁iqela": 7327,
      "lando": 7328,
      "▁you?\n": 7329,
      "▁ungakwazi": 7330,
      "▁serve": 7331,
      "▁Germany": 7332,
      "▁recommend": 7333,
      "adem": 7334,
      "▁enk": 7335,
      "▁Mexic": 7336,
      "▁ephezulu": 7337,
      "▁door": 7338,
      "asons": 7339,
      "▁immedi": 7340,
      "hil": 7341,
      "odeli": 7342,
      "▁izind": 7343,
      "camango": 7344,
      "▁mix": 7345,
      "gcisa": 7346,
      "vav": 7347,
      "hlabathini": 7348,
      "▁to\n": 7349,
      "▁highl": 7350,
      "▁treatment": 7351,
      "iseki": 7352,
      "▁gift": 7353,
      "▁foreign": 7354,
      "▁During": 7355,
      "▁August": 7356,
      "▁ly": 7357,
      "khung": 7358,
      "cacileyo": 7359,
      "▁Joseph": 7360,
      "▁vert": 7361,
      "▁eT": 7362,
      "▁siqu": 7363,
      "▁benefit": 7364,
      "▁luck": 7365,
      "wenziwa": 7366,
      "unch": 7367,
      "▁ush": 7368,
      "word": 7369,
      "▁throughout": 7370,
      "ments.\n": 7371,
      "▁luya": 7372,
      "Ngesi": 7373,
      "▁Sha": 7374,
      "▁na?\n": 7375,
      "▁bi": 7376,
      "▁successful": 7377,
      "ingizim": 7378,
      "os.\n": 7379,
      "ilizwe": 7380,
      "▁looks": 7381,
      "▁week.\n": 7382,
      "omvu": 7383,
      "uye": 7384,
      "▁separ": 7385,
      "▁place.\n": 7386,
      "▁self-": 7387,
      "▁ukug": 7388,
      "where": 7389,
      "▁UP": 7390,
      "▁kle": 7391,
      "▁Kubalulekile": 7392,
      "▁Akun": 7393,
      "40": 7394,
      "xy": 7395,
      "istic": 7396,
      "kunika": 7397,
      "oni.\n": 7398,
      "▁Okanye": 7399,
      "zy": 7400,
      "onse": 7401,
      "▁Old": 7402,
      "phind": 7403,
      "▁ndand": 7404,
      "▁carry": 7405,
      "▁convers": 7406,
      "hafu": 7407,
      "UK": 7408,
      "▁designed": 7409,
      "▁Company": 7410,
      "▁talking": 7411,
      "▁Wel": 7412,
      "kululeko": 7413,
      ":19": 7414,
      "▁julle": 7415,
      "▁grand": 7416,
      "▁uyi": 7417,
      "hlalo": 7418,
      "zer": 7419,
      "▁outside": 7420,
      "▁kungcono": 7421,
      "▁ilizwe": 7422,
      "▁yil": 7423,
      "▁isebenza": 7424,
      "▁amehlo": 7425,
      "waba": 7426,
      "▁Gener": 7427,
      "cela": 7428,
      "▁Inter": 7429,
      "▁dress": 7430,
      "▁ezivela": 7431,
      "▁sac": 7432,
      "▁customers": 7433,
      "▁imb": 7434,
      "▁April": 7435,
      "hlukile": 7436,
      "xak": 7437,
      "onakal": 7438,
      "▁essential": 7439,
      "▁kulung": 7440,
      "▁towards": 7441,
      "▁series": 7442,
      "▁tend": 7443,
      "cto": 7444,
      "▁soc": 7445,
      "thele": 7446,
      "▁there.\n": 7447,
      "kuthanda": 7448,
      "ask": 7449,
      "ziphi": 7450,
      "▁mp": 7451,
      "zelelo": 7452,
      "isi,": 7453,
      "▁rather": 7454,
      "olo.\n": 7455,
      "Zimu": 7456,
      "▁geen": 7457,
      "▁2018": 7458,
      "▁lwe-": 7459,
      "hlawula": 7460,
      "▁yindlela": 7461,
      "enoku": 7462,
      "▁Download": 7463,
      "%.\n": 7464,
      "▁i-c": 7465,
      "▁surv": 7466,
      "ulula": 7467,
      "kala": 7468,
      "▁Moses": 7469,
      "▁ukuqinisekisa": 7470,
      "▁isandla": 7471,
      "▁Eyona": 7472,
      "ada": 7473,
      "▁He's": 7474,
      "anzi.\n": 7475,
      "zimisele": 7476,
      "gqity": 7477,
      "▁useful": 7478,
      "▁1\n": 7479,
      "ancinci": 7480,
      "▁emzimb": 7481,
      "▁Ngokom": 7482,
      "rik": 7483,
      "ry,": 7484,
      "▁ake": 7485,
      "▁beb": 7486,
      "hib": 7487,
      "▁San": 7488,
      "elle": 7489,
      "Instagram": 7490,
      "opyright": 7491,
      "phathwa": 7492,
      "▁Vol": 7493,
      "▁fem": 7494,
      "dat": 7495,
      "▁pict": 7496,
      "rage": 7497,
      "amashumi": 7498,
      "▁Kore": 7499,
      "▁simply": 7500,
      "▁ebh": 7501,
      "jwayelekile": 7502,
      "ion\n": 7503,
      "thengiswa": 7504,
      "kholo": 7505,
      "▁baku": 7506,
      "▁imveliso": 7507,
      "▁kufumana": 7508,
      "OL": 7509,
      "yini": 7510,
      "itya": 7511,
      "umba": 7512,
      "welo": 7513,
      "ar,": 7514,
      "▁q": 7515,
      "khupha": 7516,
      "ool": 7517,
      "▁grad": 7518,
      "▁\"s": 7519,
      "▁purpose": 7520,
      "tshwa": 7521,
      "▁comb": 7522,
      "▁baza": 7523,
      "▁amathuba": 7524,
      "▁road": 7525,
      "▁yis": 7526,
      "▁ithi": 7527,
      "oring": 7528,
      "khumbu": 7529,
      "itiz": 7530,
      "▁India": 7531,
      "▁themselves": 7532,
      "▁eG": 7533,
      "▁abathengi": 7534,
      "fake": 7535,
      "▁Mod": 7536,
      "▁izinsuku": 7537,
      "entla": 7538,
      "▁wouldn't": 7539,
      "▁Nor": 7540,
      "ronic": 7541,
      "▁Li": 7542,
      "▁police": 7543,
      "▁Sebenzisa": 7544,
      "▁percent": 7545,
      "hlawumbe": 7546,
      "Jesu": 7547,
      "▁33": 7548,
      "zala": 7549,
      "▁Ukun": 7550,
      "▁sons": 7551,
      "etic": 7552,
      "▁buka": 7553,
      "bezana": 7554,
      "▁ug": 7555,
      "EO": 7556,
      "enam": 7557,
      "▁describ": 7558,
      "▁political": 7559,
      "▁iNkosi": 7560,
      "▁turned": 7561,
      "C.\n": 7562,
      "inqa": 7563,
      "▁sif": 7564,
      "▁Kukhona": 7565,
      "▁kuyo.\n": 7566,
      "▁abadlali": 7567,
      "▁January": 7568,
      "▁Ngokuba": 7569,
      "▁abal": 7570,
      "emuva": 7571,
      "▁final": 7572,
      "thathwa": 7573,
      "▁heaven": 7574,
      "▁environment": 7575,
      "▁yeb": 7576,
      "ened": 7577,
      "▁Que": 7578,
      "xaxheba": 7579,
      "▁lack": 7580,
      "ibr": 7581,
      "▁currently": 7582,
      "▁destroy": 7583,
      "xibelelwano": 7584,
      "khonzi": 7585,
      "-N": 7586,
      "phutha": 7587,
      "▁crit": 7588,
      "anethi.\n": 7589,
      "▁Fa": 7590,
      "▁zabantu": 7591,
      "▁ali": 7592,
      "ership": 7593,
      "▁je": 7594,
      "hum": 7595,
      "anta": 7596,
      "▁kitch": 7597,
      "▁ekupheleni": 7598,
      "▁Vers": 7599,
      "▁collect": 7600,
      "▁Ake": 7601,
      "▁amabini": 7602,
      "qweno": 7603,
      "▁extremely": 7604,
      "ama.\n": 7605,
      "▁Qin": 7606,
      "▁ixabiso": 7607,
      "▁Job": 7608,
      "▁Waye": 7609,
      "indaba": 7610,
      "phulaph": 7611,
      "▁od": 7612,
      "▁issue": 7613,
      "▁rule": 7614,
      "▁Once": 7615,
      "▁vrou": 7616,
      "TV": 7617,
      "▁range": 7618,
      "!\"": 7619,
      "▁(n": 7620,
      "▁lewe": 7621,
      "▁esiz": 7622,
      "▁evil": 7623,
      "▁esim": 7624,
      "▁ngazo": 7625,
      "▁manufact": 7626,
      "▁Before": 7627,
      "bit": 7628,
      "entsuku": 7629,
      "ariya": 7630,
      "▁eziphambili": 7631,
      "▁u-A": 7632,
      "▁us,": 7633,
      "yweni": 7634,
      "▁money.\n": 7635,
      "▁Abo": 7636,
      ":00": 7637,
      "xelele": 7638,
      "yalezo": 7639,
      "hamp": 7640,
      "▁uluhlu": 7641,
      "▁weather": 7642,
      "▁zabo.\n": 7643,
      "qaphela": 7644,
      "bili": 7645,
      "khali": 7646,
      "iger": 7647,
      "dlula": 7648,
      "▁nokus": 7649,
      "ky": 7650,
      "▁Lesi": 7651,
      "▁abasebenzi": 7652,
      "▁ngelixa": 7653,
      "witter": 7654,
      "nyam": 7655,
      "Int": 7656,
      "hic": 7657,
      "este": 7658,
      "ohn": 7659,
      "▁cur": 7660,
      "▁Mil": 7661,
      "▁uphawu": 7662,
      "▁wayes": 7663,
      "▁keer": 7664,
      "▁aware": 7665,
      "▁omn": 7666,
      "▁siku": 7667,
      "▁kuye.\n": 7668,
      "▁\"R": 7669,
      "▁Was": 7670,
      "arike": 7671,
      "esday": 7672,
      "▁Bonke": 7673,
      ":)\n": 7674,
      "omin": 7675,
      "-st": 7676,
      "▁News": 7677,
      "▁board": 7678,
      "▁emininzi": 7679,
      "▁Uninzi": 7680,
      "thandayo": 7681,
      "anduva": 7682,
      "▁all.\n": 7683,
      "▁imib": 7684,
      "ine\n": 7685,
      "ayis": 7686,
      "▁squ": 7687,
      "▁meeting": 7688,
      "eti": 7689,
      "▁September": 7690,
      "ori": 7691,
      "▁yok": 7692,
      "▁security": 7693,
      "▁changed": 7694,
      "hlukileyo": 7695,
      "chule": 7696,
      "▁do.\n": 7697,
      "change": 7698,
      "enkile": 7699,
      "in'": 7700,
      "▁agree": 7701,
      "alled": 7702,
      "▁discipl": 7703,
      "well": 7704,
      "lies": 7705,
      "isweni": 7706,
      "ux": 7707,
      "qinisekile": 7708,
      "▁Thanks": 7709,
      "-L": 7710,
      "owudi": 7711,
      "▁Ingaba": 7712,
      "engathi": 7713,
      "bel": 7714,
      "▁mountain": 7715,
      "▁shows": 7716,
      "▁ying": 7717,
      "▁killed": 7718,
      "zamo": 7719,
      "▁Eye": 7720,
      "▁Da": 7721,
      "▁uninzi": 7722,
      "olophu": 7723,
      "inaku": 7724,
      "▁Abraham": 7725,
      "▁positive": 7726,
      "▁message": 7727,
      "▁waiting": 7728,
      "▁(H": 7729,
      "ah,": 7730,
      "▁daily": 7731,
      "dam": 7732,
      "▁connect": 7733,
      "uqu": 7734,
      "▁Rob": 7735,
      "▁object": 7736,
      "qo.\n": 7737,
      "enzeke": 7738,
      "▁on.\n": 7739,
      "khombisa": 7740,
      "▁technology": 7741,
      "uya": 7742,
      "▁lal": 7743,
      "adoda": 7744,
      "▁Ukwa": 7745,
      "hambi": 7746,
      "▁Kha": 7747,
      "▁besk": 7748,
      "finyelela": 7749,
      "fike": 7750,
      "akwe": 7751,
      "▁esinga": 7752,
      "▁sn": 7753,
      "phethe": 7754,
      "▁njengoku": 7755,
      "▁\"And": 7756,
      "▁Phakathi": 7757,
      "orr": 7758,
      "▁Fumana": 7759,
      "ayizi": 7760,
      "qaba": 7761,
      "OU": 7762,
      "itely": 7763,
      "▁ngo-201": 7764,
      "▁below": 7765,
      "▁exerc": 7766,
      "▁Kulo": 7767,
      "ehl": 7768,
      "▁(F": 7769,
      "kade": 7770,
      "▁parts": 7771,
      "▁abazi": 7772,
      "va,": 7773,
      "▁further": 7774,
      "anse": 7775,
      "ulala": 7776,
      "khundleni": 7777,
      "▁stress": 7778,
      "ables": 7779,
      "▁(U": 7780,
      "▁up,": 7781,
      "▁dama": 7782,
      "qukethwe": 7783,
      "▁yakhe,": 7784,
      "olong": 7785,
      "cast": 7786,
      "▁progress": 7787,
      "ingizimu": 7788,
      "▁computer": 7789,
      "unywa": 7790,
      "▁Iz": 7791,
      "▁Hayi": 7792,
      "do": 7793,
      "ET": 7794,
      "Tube": 7795,
      "ouncil": 7796,
      "▁kuyim": 7797,
      "▁ezib": 7798,
      "▁pretty": 7799,
      "▁disapp": 7800,
      "▁nent": 7801,
      "ato": 7802,
      "uluzi": 7803,
      "phakade": 7804,
      "acka": 7805,
      "▁saam": 7806,
      "rupt": 7807,
      "▁doctor": 7808,
      "awu": 7809,
      "▁ngcono": 7810,
      "\"?\n": 7811,
      "▁Aka": 7812,
      "urt": 7813,
      "▁ene": 7814,
      "▁Nceda": 7815,
      "▁izingane": 7816,
      "▁deel": 7817,
      "▁management": 7818,
      "theless": 7819,
      "▁Republic": 7820,
      "▁opin": 7821,
      "▁\"He": 7822,
      "▁largest": 7823,
      "▁amabili": 7824,
      "▁satis": 7825,
      "▁skin": 7826,
      "anoma": 7827,
      "raft": 7828,
      "▁sexual": 7829,
      "▁Creat": 7830,
      "▁world,": 7831,
      "thandi": 7832,
      "▁assist": 7833,
      "▁yoko": 7834,
      "vumelana": 7835,
      "ological": 7836,
      "▁engine": 7837,
      "▁Song": 7838,
      "wini.\n": 7839,
      "▁you\n": 7840,
      "▁pred": 7841,
      "quma": 7842,
      "fani": 7843,
      "ulwini": 7844,
      "uhle": 7845,
      "▁possible.\n": 7846,
      "▁nice": 7847,
      "ax": 7848,
      "elinye": 7849,
      "▁quickly": 7850,
      "▁sinoku": 7851,
      "aseben": 7852,
      "ngen": 7853,
      "▁kingdom": 7854,
      "▁fix": 7855,
      "▁well-": 7856,
      "qaphele": 7857,
      "▁Ngamanye": 7858,
      "▁Wam": 7859,
      "▁located": 7860,
      "icr": 7861,
      "▁okokuqala": 7862,
      "ors.\n": 7863,
      "▁mal": 7864,
      "▁ngokuqinisekileyo": 7865,
      "web": 7866,
      "id.\n": 7867,
      "e,\n": 7868,
      "vest": 7869,
      "▁ukusetyenziswa": 7870,
      "▁rights": 7871,
      "▁oza": 7872,
      "▁ukuq": 7873,
      "shay": 7874,
      "▁either": 7875,
      "▁dies": 7876,
      "vakashi": 7877,
      "avide": 7878,
      "▁reading": 7879,
      "▁kwelinye": 7880,
      "zimali": 7881,
      "khodi": 7882,
      "▁willing": 7883,
      "▁i-s": 7884,
      "ka\n": 7885,
      "wul": 7886,
      "obho": 7887,
      "bala": 7888,
      "▁arm": 7889,
      "dy": 7890,
      "xulumene": 7891,
[...]
